{
  "version": "1.0",
  "truncation": null,
  "padding": null,
  "added_tokens": [
    {
      "id": 0,
      "content": "[UNK]",
      "single_word": false,
      "lstrip": false,
      "rstrip": false,
      "normalized": false,
      "special": true
    },
    {
      "id": 1,
      "content": "[CLS]",
      "single_word": false,
      "lstrip": false,
      "rstrip": false,
      "normalized": false,
      "special": true
    },
    {
      "id": 2,
      "content": "[SEP]",
      "single_word": false,
      "lstrip": false,
      "rstrip": false,
      "normalized": false,
      "special": true
    },
    {
      "id": 3,
      "content": "[PAD]",
      "single_word": false,
      "lstrip": false,
      "rstrip": false,
      "normalized": false,
      "special": true
    },
    {
      "id": 4,
      "content": "[MASK]",
      "single_word": false,
      "lstrip": false,
      "rstrip": false,
      "normalized": false,
      "special": true
    }
  ],
  "normalizer": null,
  "pre_tokenizer": {
    "type": "ByteLevel",
    "add_prefix_space": false,
    "trim_offsets": true,
    "use_regex": true
  },
  "post_processor": {
    "type": "TemplateProcessing",
    "single": [
      {
        "Sequence": {
          "id": "A",
          "type_id": 0
        }
      }
    ],
    "pair": [
      {
        "Sequence": {
          "id": "A",
          "type_id": 0
        }
      },
      {
        "Sequence": {
          "id": "B",
          "type_id": 1
        }
      }
    ],
    "special_tokens": {}
  },
  "decoder": {
    "type": "ByteLevel",
    "add_prefix_space": true,
    "trim_offsets": true,
    "use_regex": true
  },
  "model": {
    "type": "BPE",
    "dropout": null,
    "unk_token": "[UNK]",
    "continuing_subword_prefix": null,
    "end_of_word_suffix": null,
    "fuse_unk": false,
    "byte_fallback": false,
    "ignore_merges": false,
    "vocab": {
      "[UNK]": 0,
      "[CLS]": 1,
      "[SEP]": 2,
      "[PAD]": 3,
      "[MASK]": 4,
      "!": 5,
      "\"": 6,
      "#": 7,
      "$": 8,
      "%": 9,
      "&": 10,
      "'": 11,
      "(": 12,
      ")": 13,
      "*": 14,
      "+": 15,
      ",": 16,
      "-": 17,
      ".": 18,
      "/": 19,
      "0": 20,
      "1": 21,
      "2": 22,
      "3": 23,
      "4": 24,
      "5": 25,
      "6": 26,
      "7": 27,
      "8": 28,
      "9": 29,
      ":": 30,
      ";": 31,
      "<": 32,
      "=": 33,
      ">": 34,
      "?": 35,
      "@": 36,
      "A": 37,
      "B": 38,
      "C": 39,
      "D": 40,
      "E": 41,
      "F": 42,
      "G": 43,
      "H": 44,
      "I": 45,
      "J": 46,
      "K": 47,
      "L": 48,
      "M": 49,
      "N": 50,
      "O": 51,
      "P": 52,
      "Q": 53,
      "R": 54,
      "S": 55,
      "T": 56,
      "U": 57,
      "V": 58,
      "W": 59,
      "X": 60,
      "Y": 61,
      "Z": 62,
      "[": 63,
      "\\": 64,
      "]": 65,
      "^": 66,
      "`": 67,
      "a": 68,
      "b": 69,
      "c": 70,
      "d": 71,
      "e": 72,
      "f": 73,
      "g": 74,
      "h": 75,
      "i": 76,
      "j": 77,
      "k": 78,
      "l": 79,
      "m": 80,
      "n": 81,
      "o": 82,
      "p": 83,
      "q": 84,
      "r": 85,
      "s": 86,
      "t": 87,
      "u": 88,
      "v": 89,
      "w": 90,
      "x": 91,
      "y": 92,
      "z": 93,
      "|": 94,
      "~": 95,
      "¡": 96,
      "¢": 97,
      "£": 98,
      "¤": 99,
      "¥": 100,
      "¦": 101,
      "§": 102,
      "¨": 103,
      "©": 104,
      "ª": 105,
      "«": 106,
      "¬": 107,
      "®": 108,
      "¯": 109,
      "°": 110,
      "±": 111,
      "²": 112,
      "³": 113,
      "´": 114,
      "µ": 115,
      "¶": 116,
      "·": 117,
      "¸": 118,
      "¹": 119,
      "º": 120,
      "»": 121,
      "¼": 122,
      "½": 123,
      "¾": 124,
      "¿": 125,
      "Â": 126,
      "Ã": 127,
      "Ä": 128,
      "Å": 129,
      "Æ": 130,
      "Ê": 131,
      "Ì": 132,
      "Î": 133,
      "Ð": 134,
      "Ñ": 135,
      "Ø": 136,
      "Ù": 137,
      "à": 138,
      "á": 139,
      "â": 140,
      "ã": 141,
      "å": 142,
      "æ": 143,
      "ç": 144,
      "é": 145,
      "ï": 146,
      "Ġ": 147,
      "Ģ": 148,
      "ģ": 149,
      "Ĥ": 150,
      "ĥ": 151,
      "Ħ": 152,
      "ħ": 153,
      "Ĩ": 154,
      "ĩ": 155,
      "Ī": 156,
      "ī": 157,
      "Ĭ": 158,
      "ĭ": 159,
      "Į": 160,
      "į": 161,
      "İ": 162,
      "ı": 163,
      "Ĳ": 164,
      "ĳ": 165,
      "Ĵ": 166,
      "ĵ": 167,
      "Ķ": 168,
      "ķ": 169,
      "ĸ": 170,
      "Ĺ": 171,
      "ĺ": 172,
      "Ļ": 173,
      "ļ": 174,
      "Ľ": 175,
      "ľ": 176,
      "Ŀ": 177,
      "ŀ": 178,
      "Ł": 179,
      "ł": 180,
      "Ń": 181,
      "Ġt": 182,
      "he": 183,
      "Ġa": 184,
      "in": 185,
      "Ġthe": 186,
      "er": 187,
      "on": 188,
      "Ġ,": 189,
      "re": 190,
      "Ġs": 191,
      "Ġo": 192,
      "Ġw": 193,
      "ed": 194,
      "nd": 195,
      "Ġ.": 196,
      "at": 197,
      "or": 198,
      "Ġc": 199,
      "it": 200,
      "Ġf": 201,
      "en": 202,
      "is": 203,
      "Ġof": 204,
      "es": 205,
      "Ġb": 206,
      "Ġin": 207,
      "ar": 208,
      "an": 209,
      "al": 210,
      "Ġp": 211,
      "Ġand": 212,
      "ing": 213,
      "as": 214,
      "Ġto": 215,
      "Ġm": 216,
      "ro": 217,
      "ic": 218,
      "Ġd": 219,
      "Ġh": 220,
      "ion": 221,
      "ou": 222,
      "le": 223,
      "Ġre": 224,
      "ĠT": 225,
      "Ġ\"": 226,
      "Ġth": 227,
      "ent": 228,
      "Ġ1": 229,
      "il": 230,
      "ĠA": 231,
      "st": 232,
      "Ġl": 233,
      "ĠS": 234,
      "om": 235,
      "Ġe": 236,
      "Ġn": 237,
      "Ġ@": 238,
      "am": 239,
      "el": 240,
      "ĠC": 241,
      "ad": 242,
      "Ġwas": 243,
      "ac": 244,
      "Ġon": 245,
      "Ġbe": 246,
      "ur": 247,
      "ly": 248,
      "Ġ'": 249,
      "ĠM": 250,
      "Ġg": 251,
      "Ġfor": 252,
      "iv": 253,
      "ol": 254,
      "-@": 255,
      "Ġ@-@": 256,
      "ter": 257,
      "im": 258,
      "id": 259,
      "ir": 260,
      "ĠThe": 261,
      "Ġas": 262,
      "ĠI": 263,
      "ĠB": 264,
      "ct": 265,
      "ig": 266,
      "th": 267,
      "Ġ=": 268,
      "ow": 269,
      "ith": 270,
      "Ġst": 271,
      "us": 272,
      "Ġ2": 273,
      "ay": 274,
      "ĠH": 275,
      "Ġthat": 276,
      "Ġwith": 277,
      "her": 278,
      "ver": 279,
      "ot": 280,
      "ut": 281,
      "ce": 282,
      "ation": 283,
      "et": 284,
      "Ġis": 285,
      "Ġwh": 286,
      "ch": 287,
      "Ġby": 288,
      "ĠP": 289,
      "Ġ)": 290,
      "Ġal": 291,
      "Ġ(": 292,
      "un": 293,
      "ĠR": 294,
      "Ġcon": 295,
      "em": 296,
      "ul": 297,
      "Ġat": 298,
      "ĠF": 299,
      "Ġit": 300,
      "ĠD": 301,
      "and": 302,
      "Ġ19": 303,
      "ain": 304,
      "rom": 305,
      "ĠW": 306,
      "os": 307,
      "Ġan": 308,
      "ĠN": 309,
      "Ġhe": 310,
      "ers": 311,
      "est": 312,
      "ag": 313,
      "00": 314,
      "av": 315,
      "ĠG": 316,
      "Ġse": 317,
      "ĠL": 318,
      "um": 319,
      "Ġde": 320,
      "ĠJ": 321,
      "Ġhis": 322,
      "Ġr": 323,
      "Ġfrom": 324,
      "od": 325,
      "Ġcom": 326,
      "ri": 327,
      "pe": 328,
      "ĠE": 329,
      "Ġpro": 330,
      "ĠO": 331,
      "ist": 332,
      "ere": 333,
      "ld": 334,
      "ies": 335,
      "ort": 336,
      "Ġv": 337,
      "if": 338,
      "res": 339,
      "Ġsu": 340,
      "ore": 341,
      "Ġwere": 342,
      "ill": 343,
      "ong": 344,
      "ew": 345,
      "ap": 346,
      "op": 347,
      "igh": 348,
      "ich": 349,
      "Ġor": 350,
      "ate": 351,
      "all": 352,
      "ard": 353,
      "art": 354,
      "ak": 355,
      "Ġch": 356,
      "ber": 357,
      "Ġex": 358,
      "ame": 359,
      "gh": 360,
      "ab": 361,
      "ud": 362,
      "Ġpl": 363,
      "ated": 364,
      "se": 365,
      "ant": 366,
      "ity": 367,
      "Ġare": 368,
      "oc": 369,
      "Ġâ": 370,
      "ive": 371,
      "rou": 372,
      "ess": 373,
      "Ġsh": 374,
      "qu": 375,
      "Ġhad": 376,
      "ĠâĢ": 377,
      "ĠIn": 378,
      "Ġk": 379,
      "Ġwhich": 380,
      "ack": 381,
      "red": 382,
      "ĠU": 383,
      "Ġy": 384,
      "Ġle": 385,
      "ov": 386,
      "Ġnot": 387,
      "our": 388,
      "ip": 389,
      "ast": 390,
      "ĠK": 391,
      "ment": 392,
      "ord": 393,
      "ear": 394,
      "rit": 395,
      "Ġtr": 396,
      "ally": 397,
      "ge": 398,
      "ĠSt": 399,
      "pt": 400,
      "ian": 401,
      "ther": 402,
      "ost": 403,
      "ine": 404,
      "ave": 405,
      "ight": 406,
      "Ġu": 407,
      "oun": 408,
      "ell": 409,
      "Ġ3": 410,
      "ish": 411,
      "cl": 412,
      "pp": 413,
      "ary": 414,
      "Ġ200": 415,
      "ust": 416,
      "ĠCh": 417,
      "irst": 418,
      "ia": 419,
      "Ġ;": 420,
      "te": 421,
      "Ġcomp": 422,
      "Ġtheir": 423,
      "Ġbut": 424,
      "cc": 425,
      "so": 426,
      "fter": 427,
      "Ġfirst": 428,
      "ous": 429,
      "ction": 430,
      "Ġun": 431,
      "Ġits": 432,
      "ould": 433,
      "ra": 434,
      "ĠâĢĵ": 435,
      "ure": 436,
      "Ġwhe": 437,
      "Ġcont": 438,
      "ide": 439,
      "Ġar": 440,
      "ue": 441,
      "ome": 442,
      "wo": 443,
      "hed": 444,
      "ical": 445,
      "ial": 446,
      "Ġ20": 447,
      "ie": 448,
      "Ġ:": 449,
      "Ġher": 450,
      "Ġalso": 451,
      "og": 452,
      "Ġint": 453,
      "ition": 454,
      "ub": 455,
      "own": 456,
      "Ġcl": 457,
      "ru": 458,
      "out": 459,
      "ater": 460,
      "ign": 461,
      "ĠV": 462,
      "Ġus": 463,
      "ork": 464,
      "The": 465,
      "per": 466,
      "Ġab": 467,
      "orm": 468,
      "ok": 469,
      "Ġad": 470,
      "ff": 471,
      "Ġhave": 472,
      "age": 473,
      "ire": 474,
      "Ġone": 475,
      "ass": 476,
      "Ġhas": 477,
      "Ġrec": 478,
      "ĠHe": 479,
      "low": 480,
      "ime": 481,
      "mer": 482,
      "Ġbeen": 483,
      "Ġro": 484,
      "Ġtwo": 485,
      "Ġres": 486,
      ".@": 487,
      "Ġ18": 488,
      "Ġ@.@": 489,
      "Ġ4": 490,
      "ond": 491,
      "ree": 492,
      "du": 493,
      "Ġper": 494,
      "Ġwho": 495,
      "Ġ5": 496,
      "ence": 497,
      "uring": 498,
      "ough": 499,
      "land": 500,
      "Ġthis": 501,
      "Ġbec": 502,
      "ile": 503,
      "ry": 504,
      "pl": 505,
      "are": 506,
      "ted": 507,
      "ĠTh": 508,
      "ect": 509,
      "ance": 510,
      "Ġsc": 511,
      "ans": 512,
      "Ġbo": 513,
      "Ġplay": 514,
      "Ġthey": 515,
      "clud": 516,
      "ĠIt": 517,
      "Ġyear": 518,
      "Ġpart": 519,
      "Ġag": 520,
      "ade": 521,
      "Ġ201": 522,
      "Ġman": 523,
      "Ġother": 524,
      "Ġdes": 525,
      "ric": 526,
      "Ġdis": 527,
      "ory": 528,
      "ations": 529,
      "Ġte": 530,
      "ely": 531,
      "Ġafter": 532,
      "ach": 533,
      "ult": 534,
      "Ġj": 535,
      "Ġser": 536,
      "ound": 537,
      "Ġover": 538,
      "over": 539,
      "Ġoff": 540,
      ",@": 541,
      "Ġ@,@": 542,
      "ĠAl": 543,
      "ang": 544,
      "Ġinclud": 545,
      "Ġsp": 546,
      "ions": 547,
      "Ġen": 548,
      "ite": 549,
      "urn": 550,
      "ount": 551,
      "act": 552,
      "ace": 553,
      "Ġim": 554,
      "iz": 555,
      "wn": 556,
      "ib": 557,
      "ice": 558,
      "Ġout": 559,
      "Ġup": 560,
      "ke": 561,
      "ress": 562,
      "ark": 563,
      "Ġtime": 564,
      "ĠY": 565,
      "nder": 566,
      "Ġne": 567,
      "Ġinto": 568,
      "Ġfin": 569,
      "rough": 570,
      "Ġpre": 571,
      "Ġev": 572,
      "ced": 573,
      "port": 574,
      "we": 575,
      "Ġwould": 576,
      "Ġshe": 577,
      "Ġmore": 578,
      "Ġcomm": 579,
      "Ġspe": 580,
      "ces": 581,
      "ason": 582,
      "Ġatt": 583,
      "round": 584,
      "Ġall": 585,
      "ward": 586,
      "ren": 587,
      "one": 588,
      "ose": 589,
      "ail": 590,
      "Ġhim": 591,
      "ited": 592,
      "amp": 593,
      "Ġwe": 594,
      "ied": 595,
      "ens": 596,
      "tern": 597,
      "oin": 598,
      "ased": 599,
      "Ġcent": 600,
      "Ġ6": 601,
      "ĠUn": 602,
      "rib": 603,
      "Ġwork": 604,
      "ents": 605,
      "ild": 606,
      "Ġme": 607,
      "ix": 608,
      "ood": 609,
      "les": 610,
      "ts": 611,
      "man": 612,
      "ings": 613,
      "ase": 614,
      "Ġ7": 615,
      "Ġfe": 616,
      "Ġthem": 617,
      "ĠSe": 618,
      "ious": 619,
      "able": 620,
      "Ġwhen": 621,
      "Ġbet": 622,
      "Ġsong": 623,
      "ake": 624,
      "ors": 625,
      "Ġsec": 626,
      "als": 627,
      "ates": 628,
      "Ġear": 629,
      "Ġrem": 630,
      "iss": 631,
      "old": 632,
      "ubl": 633,
      "Ġkn": 634,
      "vel": 635,
      "Ġmost": 636,
      "Ġduring": 637,
      "form": 638,
      "aus": 639,
      "gan": 640,
      "fer": 641,
      "Ġonly": 642,
      "Ġnew": 643,
      "Ġgame": 644,
      "oy": 645,
      "ath": 646,
      "ilm": 647,
      "ved": 648,
      "ered": 649,
      "ĠRe": 650,
      "ve": 651,
      "ember": 652,
      "orth": 653,
      "ollow": 654,
      "ĠAn": 655,
      "ween": 656,
      "reat": 657,
      "Ġ199": 658,
      "way": 659,
      "outh": 660,
      "Ġ9": 661,
      "Ġrel": 662,
      "Ġcan": 663,
      "ĠOn": 664,
      "Ġ8": 665,
      "Ġabout": 666,
      "ters": 667,
      "ss": 668,
      "Ġagain": 669,
      "Ġseason": 670,
      "Ġthree": 671,
      "ĠAr": 672,
      "Ġcons": 673,
      "ick": 674,
      "Ġthan": 675,
      "ug": 676,
      "Ġbetween": 677,
      "att": 678,
      "aw": 679,
      "ral": 680,
      "ĠMar": 681,
      "ĠEn": 682,
      "Ġrecord": 683,
      "Ġsome": 684,
      "ons": 685,
      "cted": 686,
      "Ġunder": 687,
      "Ġchar": 688,
      "fore": 689,
      "ational": 690,
      "Ġthrough": 691,
      "ular": 692,
      "ind": 693,
      "ict": 694,
      "Ġlater": 695,
      "hip": 696,
      "Ġcol": 697,
      "Ġnum": 698,
      "Ġ00": 699,
      "ft": 700,
      "iew": 701,
      "ision": 702,
      "Ġwhile": 703,
      "Ġprodu": 704,
      "Ġwrit": 705,
      "Ġpos": 706,
      "Ġfilm": 707,
      "Ġver": 708,
      "ames": 709,
      "Ġrele": 710,
      "Ġend": 711,
      "ever": 712,
      "ished": 713,
      "Ġap": 714,
      "ey": 715,
      "Ġpe": 716,
      "Ġmade": 717,
      "Ġinter": 718,
      "Ġpr": 719,
      "Ġform": 720,
      "ning": 721,
      "Ġfl": 722,
      "Ġreg": 723,
      "ĠCom": 724,
      "Ġass": 725,
      "ĠDe": 726,
      "Ġwhere": 727,
      "Ġso": 728,
      "orld": 729,
      "Ġmov": 730,
      "meric": 731,
      "Ġspec": 732,
      "In": 733,
      "ury": 734,
      "ĠAmeric": 735,
      "ĠNew": 736,
      "Ġlar": 737,
      "Ġac": 738,
      "bum": 739,
      "Ġapp": 740,
      "Ġret": 741,
      "ron": 742,
      "Ġfollow": 743,
      "Ġbu": 744,
      "ener": 745,
      "Ġno": 746,
      "Ġsuch": 747,
      "Ġdef": 748,
      "Ġsecond": 749,
      "ived": 750,
      "Ġfour": 751,
      "ock": 752,
      "aid": 753,
      "Ġmus": 754,
      "Ġqu": 755,
      "Ġacc": 756,
      "Ġused": 757,
      "Ġsub": 758,
      "Ġinc": 759,
      "Ġact": 760,
      "ike": 761,
      "rop": 762,
      "Ġday": 763,
      "Ġpubl": 764,
      "Ġam": 765,
      "ars": 766,
      "Ġcall": 767,
      "ual": 768,
      "Ġalbum": 769,
      "Ġind": 770,
      "olog": 771,
      "Ġ000": 772,
      "Ġbefore": 773,
      "Ġdo": 774,
      "Ġappe": 775,
      "ob": 776,
      "oh": 777,
      "ific": 778,
      "ily": 779,
      "Ġbeing": 780,
      "ĠThis": 781,
      "ank": 782,
      "Ġgr": 783,
      "Ġco": 784,
      "any": 785,
      "Ġthere": 786,
      "Ġsupp": 787,
      "Ġyears": 788,
      "ĠLe": 789,
      "ck": 790,
      "owever": 791,
      "ating": 792,
      "ane": 793,
      "Ġfound": 794,
      "ĠEng": 795,
      "Ġele": 796,
      "Ġ0": 797,
      "Ġhigh": 798,
      "Ġset": 799,
      "iel": 800,
      "Ġep": 801,
      "orn": 802,
      "hen": 803,
      "ll": 804,
      "hes": 805,
      "other": 806,
      "Ġent": 807,
      "ird": 808,
      "Ġsy": 809,
      "iver": 810,
      "Ġsur": 811,
      "ained": 812,
      "Ġseries": 813,
      "Ġ10": 814,
      "ics": 815,
      "ten": 816,
      "Ġnumber": 817,
      "pen": 818,
      "igin": 819,
      "end": 820,
      "ince": 821,
      "ause": 822,
      "ph": 823,
      "Ġloc": 824,
      "ĠAt": 825,
      "Ġdec": 826,
      "ife": 827,
      "Ġpres": 828,
      "Ġboth": 829,
      "ode": 830,
      "Ġsever": 831,
      "ities": 832,
      "Ġ12": 833,
      "Ġthen": 834,
      "Ġincluding": 835,
      "ines": 836,
      "Ġepis": 837,
      "Ġ/": 838,
      "velop": 839,
      "Ġagainst": 840,
      "Ġwell": 841,
      "Ġbecame": 842,
      "ĠBrit": 843,
      "Ġknown": 844,
      "ject": 845,
      "ised": 846,
      "ĠâĢĶ": 847,
      "son": 848,
      "Ġpo": 849,
      "Ġadd": 850,
      "Ġcharac": 851,
      "ton": 852,
      "Ġsing": 853,
      "Ġbl": 854,
      "Ġgo": 855,
      "Ġcap": 856,
      "Ġdire": 857,
      "urch": 858,
      "Ġ198": 859,
      "Ġ16": 860,
      "ale": 861,
      "Ġback": 862,
      "Ġmany": 863,
      "pr": 864,
      "Ġmain": 865,
      "Ġperform": 866,
      "ident": 867,
      "Ġdesc": 868,
      "Ġpop": 869,
      "aj": 870,
      "though": 871,
      "Ġinv": 872,
      "Ġstud": 873,
      "Ġlong": 874,
      "ĠUnited": 875,
      "ĠJoh": 876,
      "ise": 877,
      "ather": 878,
      "Ġrece": 879,
      "ĠAs": 880,
      "ures": 881,
      "row": 882,
      "Ġtrans": 883,
      "Ġorigin": 884,
      "io": 885,
      "its": 886,
      "iet": 887,
      "Ġmon": 888,
      "ĠSh": 889,
      "Ġcentury": 890,
      "ement": 891,
      "Ġteam": 892,
      "ober": 893,
      "ool": 894,
      "Ġest": 895,
      "Ġshow": 896,
      "ann": 897,
      "Ġdevelop": 898,
      "Ġmin": 899,
      "ield": 900,
      "ek": 901,
      "ĠBr": 902,
      "ower": 903,
      "ĠJohn": 904,
      "Ġem": 905,
      "ĠSc": 906,
      "ier": 907,
      "elf": 908,
      "air": 909,
      "Ġ194": 910,
      "ute": 911,
      "Ġseveral": 912,
      "Ġcre": 913,
      "ert": 914,
      "Ġlead": 915,
      "ared": 916,
      "uch": 917,
      "ful": 918,
      "Ġ17": 919,
      "ivers": 920,
      "Ġbegan": 921,
      "Ġmill": 922,
      "Ġdif": 923,
      "Ġcontin": 924,
      "Ġ11": 925,
      "Ġ196": 926,
      "Ġsign": 927,
      "ually": 928,
      "Ġ15": 929,
      "overn": 930,
      "ram": 931,
      "ĠShe": 932,
      "Ġ197": 933,
      "Ġsm": 934,
      "ired": 935,
      "up": 936,
      "view": 937,
      "ative": 938,
      "Ġmay": 939,
      "Ġship": 940,
      "Ġcomple": 941,
      "Ġbr": 942,
      "Ġearly": 943,
      "led": 944,
      "Ġcould": 945,
      "Ġcrit": 946,
      "Ġdid": 947,
      "ern": 948,
      "Ġcalled": 949,
      "ross": 950,
      "ains": 951,
      "Ġart": 952,
      "Ġepisode": 953,
      "til": 954,
      "Ġnear": 955,
      "Ġob": 956,
      "Ġpol": 957,
      "Ġdescrib": 958,
      "Ġbel": 959,
      "emb": 960,
      "ĠInd": 961,
      "ued": 962,
      "iam": 963,
      "Ġalong": 964,
      "ople": 965,
      "une": 966,
      "Ġter": 967,
      "Ġrun": 968,
      "ins": 969,
      "ments": 970,
      "imes": 971,
      "Ġdep": 972,
      "ccess": 973,
      "ley": 974,
      "Ġsaid": 975,
      "roup": 976,
      "Ġfeat": 977,
      "Ġbro": 978,
      "ven": 979,
      "Ġdown": 980,
      "ĠAmerican": 981,
      "Ġinst": 982,
      "Ġthese": 983,
      "aking": 984,
      "Ġhist": 985,
      "der": 986,
      "Ġmil": 987,
      "Ġthough": 988,
      "Ġdist": 989,
      "ĠAust": 990,
      "gest": 991,
      "ĠIs": 992,
      "Ġdisc": 993,
      "Ġuntil": 994,
      "Ġoper": 995,
      "yl": 996,
      "ĠMay": 997,
      "ove": 998,
      "ĠBritish": 999,
      "Ġstart": 1000,
      "oot": 1001,
      "anc": 1002,
      "Ġcity": 1003,
      "cept": 1004,
      "ĠGer": 1005,
      "Ġsame": 1006,
      "ting": 1007,
      "Ġinf": 1008,
      "ured": 1009,
      "Ġprev": 1010,
      "Ġgener": 1011,
      "Ġreleased": 1012,
      "ange": 1013,
      "Ġexp": 1014,
      "Ġown": 1015,
      "els": 1016,
      "ized": 1017,
      "Ġany": 1018,
      "Ġreturn": 1019,
      "ĠZ": 1020,
      "amed": 1021,
      "ially": 1022,
      "ty": 1023,
      "Ġkm": 1024,
      "ided": 1025,
      "Ġland": 1026,
      "Ġdesign": 1027,
      "Ġwar": 1028,
      "Ġrep": 1029,
      "Ġmusic": 1030,
      "Ġprov": 1031,
      "Ġmillion": 1032,
      "ĠThey": 1033,
      "Ġbecause": 1034,
      "Ġarea": 1035,
      "Ġuse": 1036,
      "tend": 1037,
      "Ġcar": 1038,
      "Ġfam": 1039,
      "Ġimp": 1040,
      "Ġair": 1041,
      "az": 1042,
      "ĠWar": 1043,
      "ugust": 1044,
      "ĠAugust": 1045,
      "oman": 1046,
      "au": 1047,
      "Ġlike": 1048,
      "Ġopen": 1049,
      "Ġmat": 1050,
      "Ġsuccess": 1051,
      "osed": 1052,
      "Ġsim": 1053,
      "rap": 1054,
      "Ġocc": 1055,
      "ink": 1056,
      "ĠWh": 1057,
      "ajor": 1058,
      "enn": 1059,
      "ep": 1060,
      "ook": 1061,
      "Ġpeople": 1062,
      "Ġconst": 1063,
      "ull": 1064,
      "ĠChr": 1065,
      "Ġins": 1066,
      "Ġpass": 1067,
      "Ġeff": 1068,
      "chool": 1069,
      "Ġoffic": 1070,
      "stem": 1071,
      "ium": 1072,
      "ible": 1073,
      "xt": 1074,
      "ĠFr": 1075,
      "Ġsix": 1076,
      "Ġcount": 1077,
      "Ġsupport": 1078,
      "Ġ195": 1079,
      "my": 1080,
      "Ġaround": 1081,
      "Ġsmall": 1082,
      "Ġwin": 1083,
      "ĠCon": 1084,
      "ah": 1085,
      "Ġ%": 1086,
      "ĠBl": 1087,
      "ĠSept": 1088,
      "Ġnorth": 1089,
      "Ġadv": 1090,
      "arl": 1091,
      "Ġdam": 1092,
      "Ġgroup": 1093,
      "Ġstr": 1094,
      "Ġeach": 1095,
      "Ġpoin": 1096,
      "ĠSeptember": 1097,
      "ues": 1098,
      "ony": 1099,
      "Ġconsid": 1100,
      "Ġmet": 1101,
      "hy": 1102,
      "ouse": 1103,
      "Ġfollowing": 1104,
      "ists": 1105,
      "erson": 1106,
      "ĠJu": 1107,
      "Ġcharacter": 1108,
      "ĠAfter": 1109,
      "ms": 1110,
      "Ġhead": 1111,
      "ĠAustral": 1112,
      "uc": 1113,
      "Ġed": 1114,
      "Ġ13": 1115,
      "ĠHowever": 1116,
      "aining": 1117,
      "Ġcontro": 1118,
      "wards": 1119,
      "Ġfive": 1120,
      "Ġgovern": 1121,
      "Ġattack": 1122,
      "Ġmod": 1123,
      "ole": 1124,
      "Ġ193": 1125,
      "ient": 1126,
      "ales": 1127,
      "Ġvar": 1128,
      "ording": 1129,
      "erv": 1130,
      "ĠWorld": 1131,
      "oss": 1132,
      "Ġwill": 1133,
      "Ġlarge": 1134,
      "uth": 1135,
      "Ġever": 1136,
      "Ġ191": 1137,
      "ets": 1138,
      "Ġgu": 1139,
      "Ġann": 1140,
      "ĠComm": 1141,
      "Ġreport": 1142,
      "ague": 1143,
      "Ġconc": 1144,
      "ĠII": 1145,
      "rote": 1146,
      "ution": 1147,
      "ĠCol": 1148,
      "ĠJune": 1149,
      "Ġbook": 1150,
      "lish": 1151,
      "ĠTe": 1152,
      "ural": 1153,
      "und": 1154,
      "aving": 1155,
      "ĠHer": 1156,
      "ĠNorth": 1157,
      "ash": 1158,
      "aced": 1159,
      "Ġtit": 1160,
      "ĠAll": 1161,
      "ĠUS": 1162,
      "Ġsince": 1163,
      "dom": 1164,
      "ik": 1165,
      "Ġlife": 1166,
      "ĠStates": 1167,
      "ble": 1168,
      "ĠEu": 1169,
      "ĠGerman": 1170,
      "ĠBe": 1171,
      "ped": 1172,
      "Ġsouth": 1173,
      "Ġreceived": 1174,
      "Ġprom": 1175,
      "Ġmajor": 1176,
      "Ġfinal": 1177,
      "ilt": 1178,
      "ĠCl": 1179,
      "med": 1180,
      "Ġname": 1181,
      "ĠMe": 1182,
      "ately": 1183,
      "ivision": 1184,
      "ĠJan": 1185,
      "pect": 1186,
      "Ġpartic": 1187,
      "Ġsystem": 1188,
      "ĠOct": 1189,
      "Ġpublic": 1190,
      "Ġstate": 1191,
      "Ġdr": 1192,
      "ives": 1193,
      "Ġwhat": 1194,
      "Ġdirect": 1195,
      "uary": 1196,
      "Ġlast": 1197,
      "Ġhel": 1198,
      "tle": 1199,
      "Ġext": 1200,
      "Ġdescribed": 1201,
      "hel": 1202,
      "ored": 1203,
      "ĠOctober": 1204,
      "Ġline": 1205,
      "Ġ$": 1206,
      "ĠSouth": 1207,
      "ĠPl": 1208,
      "Ġ14": 1209,
      "Ġappear": 1210,
      "ĠChrist": 1211,
      "Ġrest": 1212,
      "Ġweek": 1213,
      "ĠKing": 1214,
      "Ġplayed": 1215,
      "cess": 1216,
      "Ġbatt": 1217,
      "Ġclass": 1218,
      "Ġincre": 1219,
      "Ġtook": 1220,
      "ropical": 1221,
      "ĠAd": 1222,
      "Ġnow": 1223,
      "ĠCan": 1224,
      "ĠNov": 1225,
      "Ġ]": 1226,
      "ĠFe": 1227,
      "Ġbuild": 1228,
      "..": 1229,
      "Ġworld": 1230,
      "aged": 1231,
      "gin": 1232,
      "ĠCar": 1233,
      "ĠJuly": 1234,
      "Ġlate": 1235,
      "ages": 1236,
      "Ġwrote": 1237,
      "ĠYork": 1238,
      "Ġcare": 1239,
      "iving": 1240,
      "empt": 1241,
      "Ã©": 1242,
      "Ġ[": 1243,
      "Ġwon": 1244,
      "ional": 1245,
      "aim": 1246,
      "Ġstru": 1247,
      "Ġchild": 1248,
      "Ġmuch": 1249,
      "Ġ25": 1250,
      "ody": 1251,
      "ified": 1252,
      "Ġdue": 1253,
      "Ġserv": 1254,
      "Ġ...": 1255,
      "Ġspecies": 1256,
      "Ġsingle": 1257,
      "pril": 1258,
      "Ġallow": 1259,
      "min": 1260,
      "Ġcamp": 1261,
      "ĠApril": 1262,
      "ĠFor": 1263,
      "Ġshort": 1264,
      "Ġdiffer": 1265,
      "iod": 1266,
      "ats": 1267,
      "ideo": 1268,
      "Ġport": 1269,
      "Ġdeath": 1270,
      "Ġjust": 1271,
      "Ġvers": 1272,
      "Ġmar": 1273,
      "Ġanother": 1274,
      "ball": 1275,
      "Ġty": 1276,
      "Ġincluded": 1277,
      "Ġposs": 1278,
      "ĠJanuary": 1279,
      "Ġold": 1280,
      "ively": 1281,
      "Ġstorm": 1282,
      "ĠGu": 1283,
      "ology": 1284,
      "get": 1285,
      "Ġeven": 1286,
      "ĠEuro": 1287,
      "Ġgun": 1288,
      "Ġwithin": 1289,
      "ission": 1290,
      "Ġleft": 1291,
      "ility": 1292,
      "ont": 1293,
      "Ġnamed": 1294,
      "Ġbased": 1295,
      "Ġresult": 1296,
      "Ġposition": 1297,
      "Ġestab": 1298,
      "Ġif": 1299,
      "ina": 1300,
      "ants": 1301,
      "Ġarr": 1302,
      "by": 1303,
      "ism": 1304,
      "Ġalthough": 1305,
      "Ġconf": 1306,
      "Ġvis": 1307,
      "Ġattempt": 1308,
      "Ġprog": 1309,
      "Ġ30": 1310,
      "Ġvery": 1311,
      "ĠEngland": 1312,
      "Ġappro": 1313,
      "Ġthird": 1314,
      "omin": 1315,
      "Ġgames": 1316,
      "akes": 1317,
      "Ġbelie": 1318,
      "ple": 1319,
      "Ġtop": 1320,
      "Ġref": 1321,
      "ital": 1322,
      "ner": 1323,
      "ĠMarch": 1324,
      "Ġprevious": 1325,
      "Ġfamily": 1326,
      "ax": 1327,
      "ĠTr": 1328,
      "Ġtrack": 1329,
      "Ġlit": 1330,
      "Ġpower": 1331,
      "ĠNovember": 1332,
      "Ġtri": 1333,
      "Ġevent": 1334,
      "Ġbest": 1335,
      "Ġreview": 1336,
      "Ġperiod": 1337,
      "mber": 1338,
      "Ġway": 1339,
      "Ġhome": 1340,
      "Ġschool": 1341,
      "urric": 1342,
      "Ġwater": 1343,
      "ĠGr": 1344,
      "Ġgovernment": 1345,
      "ilar": 1346,
      "Ġlist": 1347,
      "ĠEurope": 1348,
      "ently": 1349,
      "cember": 1350,
      "ĠDecember": 1351,
      "ĠQ": 1352,
      "Ġ192": 1353,
      "Ġexpl": 1354,
      "ctions": 1355,
      "Ġmen": 1356,
      "ĠRo": 1357,
      "Ġresp": 1358,
      "ret": 1359,
      "Ġthose": 1360,
      "raft": 1361,
      "ger": 1362,
      "Ġturn": 1363,
      "avy": 1364,
      "ances": 1365,
      "Ġhum": 1366,
      "Ġplace": 1367,
      "ience": 1368,
      "ulation": 1369,
      "Ġorgan": 1370,
      "Ġsl": 1371,
      "Ġbuilt": 1372,
      "Ġbre": 1373,
      "pend": 1374,
      "ards": 1375,
      "urther": 1376,
      "Ġgreat": 1377,
      "ians": 1378,
      "Ġconstru": 1379,
      "ĠCity": 1380,
      "Ġstory": 1381,
      "ĠHis": 1382,
      "ature": 1383,
      "Ġcommand": 1384,
      "ached": 1385,
      "ides": 1386,
      "Ġprote": 1387,
      "Ġkill": 1388,
      "Ġmonth": 1389,
      "ĠGe": 1390,
      "Ġcolle": 1391,
      "ched": 1392,
      "hest": 1393,
      "Ġoriginal": 1394,
      "Ġsent": 1395,
      "iversity": 1396,
      "itary": 1397,
      "Ġmake": 1398,
      "Ġhand": 1399,
      "eder": 1400,
      "Ġ100": 1401,
      "Ġopp": 1402,
      "ĠMus": 1403,
      "Ġ2009": 1404,
      "ĠÂ": 1405,
      "Ġ2010": 1406,
      "Ġauth": 1407,
      "Ġhal": 1408,
      "ĠAnd": 1409,
      "Ġ2008": 1410,
      "Ġrequ": 1411,
      "Ġmed": 1412,
      "ĠNational": 1413,
      "Ġpresent": 1414,
      "ention": 1415,
      "oci": 1416,
      "aur": 1417,
      "Ġmark": 1418,
      "ograp": 1419,
      "Ġsug": 1420,
      "ham": 1421,
      "Ġclub": 1422,
      "Ġeng": 1423,
      "Ġph": 1424,
      "Ġperson": 1425,
      "riend": 1426,
      "Ġvideo": 1427,
      "por": 1428,
      "iven": 1429,
      "elt": 1430,
      "ene": 1431,
      "aster": 1432,
      "Ġview": 1433,
      "self": 1434,
      "ically": 1435,
      "Ġmoved": 1436,
      "ĠRiver": 1437,
      "Ġled": 1438,
      "Ġaddition": 1439,
      "Ġcapt": 1440,
      "Ġstill": 1441,
      "Ġrole": 1442,
      "Ġcame": 1443,
      "Ġlocal": 1444,
      "ne": 1445,
      "ences": 1446,
      "Ġiss": 1447,
      "rench": 1448,
      "gy": 1449,
      "ense": 1450,
      "Ġrepl": 1451,
      "Ġstand": 1452,
      "aff": 1453,
      "Ġoften": 1454,
      "Ġleg": 1455,
      "urricane": 1456,
      "Ġdest": 1457,
      "ival": 1458,
      "Ġcommon": 1459,
      "Ġcour": 1460,
      "Ġcaus": 1461,
      "ison": 1462,
      "be": 1463,
      "Ġdem": 1464,
      "aken": 1465,
      "Ġfew": 1466,
      "ae": 1467,
      "side": 1468,
      "ĠMc": 1469,
      "ĠPr": 1470,
      "ady": 1471,
      "rodu": 1472,
      "Ġeffect": 1473,
      "Ġconsidered": 1474,
      "Ġtrad": 1475,
      "Ġ2007": 1476,
      "Ġnext": 1477,
      "ery": 1478,
      "ories": 1479,
      "eng": 1480,
      "Ġplayer": 1481,
      "ĠMan": 1482,
      "Ġsuggest": 1483,
      "ling": 1484,
      "Ġstar": 1485,
      "astern": 1486,
      "Ġmy": 1487,
      "lev": 1488,
      "Ġexper": 1489,
      "Ġsimilar": 1490,
      "ĠFrench": 1491,
      "Ġrecorded": 1492,
      "Ġside": 1493,
      "uss": 1494,
      "Ġright": 1495,
      "rown": 1496,
      "ops": 1497,
      "ĠWe": 1498,
      "Ġcr": 1499,
      "Ġinit": 1500,
      "let": 1501,
      "ĠSp": 1502,
      "Ġimport": 1503,
      "ined": 1504,
      "Ġreal": 1505,
      "Ġclaim": 1506,
      "ript": 1507,
      "que": 1508,
      "Ġcompany": 1509,
      "ai": 1510,
      "Ġcover": 1511,
      "Ġpublished": 1512,
      "ĠEnglish": 1513,
      "Ġdeb": 1514,
      "Ġcontinued": 1515,
      "Ġcontr": 1516,
      "rew": 1517,
      "idge": 1518,
      "ĠBatt": 1519,
      "Ġyou": 1520,
      "Ġtake": 1521,
      "Ġbas": 1522,
      "Ġwithout": 1523,
      "Ġsold": 1524,
      "Ġmid": 1525,
      "Ġsongs": 1526,
      "Ġdifferent": 1527,
      "arn": 1528,
      "ĠPe": 1529,
      "Ġsay": 1530,
      "Ġformer": 1531,
      "Ġant": 1532,
      "Ġwind": 1533,
      "Ġtown": 1534,
      "Ġheld": 1535,
      "atter": 1536,
      "uted": 1537,
      "ior": 1538,
      "ister": 1539,
      "ĠFl": 1540,
      "Ġamong": 1541,
      "ness": 1542,
      "ternational": 1543,
      "Ġmemb": 1544,
      "Ġrefer": 1545,
      "ĠNo": 1546,
      "Ġlevel": 1547,
      "Ġtot": 1548,
      "ĠBo": 1549,
      "Ġarch": 1550,
      "Ġtem": 1551,
      "ĠThere": 1552,
      "ĠPh": 1553,
      "Ġroad": 1554,
      "ĠDuring": 1555,
      "Ġpolit": 1556,
      "Ġhistory": 1557,
      "Ġinfl": 1558,
      "Ġfield": 1559,
      "ged": 1560,
      "ĠBy": 1561,
      "Ġwritten": 1562,
      "Ġdefe": 1563,
      "arch": 1564,
      "Ġcareer": 1565,
      "thing": 1566,
      "bs": 1567,
      "Ġplan": 1568,
      "Ġevery": 1569,
      "ps": 1570,
      "Ġes": 1571,
      "Ġhalf": 1572,
      "alk": 1573,
      "Ġtw": 1574,
      "Ġ21": 1575,
      "ĠDivision": 1576,
      "resent": 1577,
      "ves": 1578,
      "estern": 1579,
      "iment": 1580,
      "ampions": 1581,
      "Ġfun": 1582,
      "ĠPort": 1583,
      "ĠState": 1584,
      "Ġbecome": 1585,
      "Ġ2011": 1586,
      "tended": 1587,
      "ead": 1588,
      "Ġav": 1589,
      "ccording": 1590,
      "Ġcommun": 1591,
      "Ġfurther": 1592,
      "Ġ2006": 1593,
      "ensive": 1594,
      "Ġmag": 1595,
      "ĠOr": 1596,
      "Ġwest": 1597,
      "Ġhowever": 1598,
      "Ġchurch": 1599,
      "Ġrelease": 1600,
      "Ġdays": 1601,
      "Ġstrong": 1602,
      "ĠOne": 1603,
      "itar": 1604,
      "Ġ23": 1605,
      "ĠWhen": 1606,
      "Ġfind": 1607,
      "Ġeast": 1608,
      "ĠWill": 1609,
      "Ġversion": 1610,
      "lear": 1611,
      "Ġjoin": 1612,
      "roy": 1613,
      "br": 1614,
      "bru": 1615,
      "ott": 1616,
      "ĠPro": 1617,
      "ried": 1618,
      "Ġtitle": 1619,
      "ĠComp": 1620,
      "Ġparticular": 1621,
      "pite": 1622,
      "yle": 1623,
      "Ġlow": 1624,
      "ĠCount": 1625,
      "Ġcompet": 1626,
      "ĠCanad": 1627,
      "ĠChurch": 1628,
      "Ġmilitary": 1629,
      "Ġpar": 1630,
      "Ġdel": 1631,
      "Ġ&": 1632,
      "Ġorder": 1633,
      "Ġauthor": 1634,
      "Ġbeh": 1635,
      "Ġprop": 1636,
      "Ġcontrol": 1637,
      "mp": 1638,
      "Ġfoot": 1639,
      "ĠRoman": 1640,
      "outher": 1641,
      "ĠLeague": 1642,
      "ĠFebru": 1643,
      "outhern": 1644,
      "ĠFebruary": 1645,
      "par": 1646,
      "ĠSong": 1647,
      "fric": 1648,
      "Ġtimes": 1649,
      "Ġgave": 1650,
      "aly": 1651,
      "Ġless": 1652,
      "ĠMin": 1653,
      "Ġsit": 1654,
      "Ġ22": 1655,
      "Ġreported": 1656,
      "Ġmembers": 1657,
      "Ġband": 1658,
      "Ġ26": 1659,
      "Ġvict": 1660,
      "raw": 1661,
      "ylan": 1662,
      "ots": 1663,
      "Ġfr": 1664,
      "Ġ24": 1665,
      "Ġchang": 1666,
      "Ġfore": 1667,
      "Ġnort": 1668,
      "ches": 1669,
      "ĠGener": 1670,
      "Ġproduced": 1671,
      "Ġ!": 1672,
      "Ġprof": 1673,
      "levision": 1674,
      "Ġtotal": 1675,
      "ailed": 1676,
      "augh": 1677,
      "ices": 1678,
      "urs": 1679,
      "Ġ2012": 1680,
      "line": 1681,
      "iety": 1682,
      "On": 1683,
      "Ġel": 1684,
      "aces": 1685,
      "Ġproduction": 1686,
      "Ġfre": 1687,
      "Ġdecl": 1688,
      "Ġtropical": 1689,
      "Ġnov": 1690,
      "ĠPark": 1691,
      "ĠWest": 1692,
      "ront": 1693,
      "ĠGeor": 1694,
      "hern": 1695,
      "oung": 1696,
      "Ġproject": 1697,
      "Ġsol": 1698,
      "Ġpopular": 1699,
      "Ġpoint": 1700,
      "Ġchildren": 1701,
      "Ġcur": 1702,
      "Ġforces": 1703,
      "apan": 1704,
      "Ġhaving": 1705,
      "ĠPer": 1706,
      "itions": 1707,
      "Ġinclude": 1708,
      "reen": 1709,
      "Ġcritic": 1710,
      "Ġobs": 1711,
      "Ġstat": 1712,
      "ĠJapan": 1713,
      "Ġhistor": 1714,
      "ler": 1715,
      "ĠAb": 1716,
      "pec": 1717,
      "Ġinvol": 1718,
      "Ġlost": 1719,
      "Ġ28": 1720,
      "ering": 1721,
      "Ġgiven": 1722,
      "ĠPar": 1723,
      "Ġinflu": 1724,
      "Ġwant": 1725,
      "alion": 1726,
      "sh": 1727,
      "Ġcult": 1728,
      "ĠDylan": 1729,
      "inc": 1730,
      "ression": 1731,
      "Ġcountry": 1732,
      "Ġfire": 1733,
      "ĠAss": 1734,
      "Ġsignific": 1735,
      "Ġrepresent": 1736,
      "Ġmanag": 1737,
      "ape": 1738,
      "omen": 1739,
      "omet": 1740,
      "ize": 1741,
      "chn": 1742,
      "Ġ2013": 1743,
      "Ġsite": 1744,
      "Ġseen": 1745,
      "osp": 1746,
      "Ġeight": 1747,
      "Ġmaking": 1748,
      "ĠBar": 1749,
      "Ġnever": 1750,
      "Ġprogram": 1751,
      "Ġestabl": 1752,
      "Ġfar": 1753,
      "Ġpress": 1754,
      "Ġstated": 1755,
      "vers": 1756,
      "Ġcomb": 1757,
      "ĠOld": 1758,
      "Ġbody": 1759,
      "Ġdet": 1760,
      "ĠAfric": 1761,
      "Ġshould": 1762,
      "Ġaff": 1763,
      "Ġmatch": 1764,
      "ither": 1765,
      "Ġfact": 1766,
      "ec": 1767,
      "ploy": 1768,
      "Ġreturned": 1769,
      "reet": 1770,
      "ising": 1771,
      "Ġpat": 1772,
      "ĠCent": 1773,
      "ĠMiss": 1774,
      "craft": 1775,
      "Ġfem": 1776,
      "rent": 1777,
      "enc": 1778,
      "ĠGeneral": 1779,
      "Ġord": 1780,
      "Ġft": 1781,
      "Ġpost": 1782,
      "ĠUniversity": 1783,
      "Ġ190": 1784,
      "ĠAmerica": 1785,
      "ĠEd": 1786,
      "Ġships": 1787,
      "Ġestablished": 1788,
      "Ġsound": 1789,
      "Ġhow": 1790,
      "Ġisland": 1791,
      "Ġearl": 1792,
      "Ġpopulation": 1793,
      "Ġannoun": 1794,
      "Ġreached": 1795,
      "Ġequ": 1796,
      "sequ": 1797,
      "ĠX": 1798,
      "Ġhour": 1799,
      "Ġchart": 1800,
      "Ġstruct": 1801,
      "ampionship": 1802,
      "ox": 1803,
      "Ġaway": 1804,
      "reland": 1805,
      "Ġsoc": 1806,
      "ably": 1807,
      "Ġnoted": 1808,
      "igade": 1809,
      "Ġtoo": 1810,
      "Ġ50": 1811,
      "aul": 1812,
      "ope": 1813,
      "Ġfriend": 1814,
      "Ġgod": 1815,
      "Ġground": 1816,
      "Ġthroughout": 1817,
      "Ġacross": 1818,
      "Ġdeveloped": 1819,
      "Ġthought": 1820,
      "Ġlight": 1821,
      "ades": 1822,
      "ĠDav": 1823,
      "fic": 1824,
      "ĠAm": 1825,
      "ĠThese": 1826,
      "Ġseven": 1827,
      "me": 1828,
      "ĠAir": 1829,
      "Ġgen": 1830,
      "ĠLond": 1831,
      "ĠJack": 1832,
      "Ġintrodu": 1833,
      "ĠLondon": 1834,
      "Ġdiv": 1835,
      "ĠIreland": 1836,
      "Ġusing": 1837,
      "Ġhimself": 1838,
      "Ġ27": 1839,
      "Ġgood": 1840,
      "ĠPol": 1841,
      "ĠWith": 1842,
      "Ġdevelopment": 1843,
      "Ġdestroy": 1844,
      "ĠAccording": 1845,
      "Ġla": 1846,
      "ĠSim": 1847,
      "ford": 1848,
      "Ġhig": 1849,
      "Ġlim": 1850,
      "aint": 1851,
      "ument": 1852,
      "most": 1853,
      "Ġfelt": 1854,
      "ese": 1855,
      "used": 1856,
      "Ġsignificant": 1857,
      "vent": 1858,
      "idence": 1859,
      "ctor": 1860,
      "play": 1861,
      "Ġperformed": 1862,
      "ĠSte": 1863,
      "reek": 1864,
      "ĠAustralia": 1865,
      "ĠWilliam": 1866,
      "work": 1867,
      "Ġimportant": 1868,
      "Ġcast": 1869,
      "Ġpra": 1870,
      "amb": 1871,
      "ĠNe": 1872,
      "int": 1873,
      "Ġmiles": 1874,
      "nt": 1875,
      "Ġcou": 1876,
      "Ġfather": 1877,
      "arr": 1878,
      "Ġtelevision": 1879,
      "Ġwriting": 1880,
      "oon": 1881,
      "Ġide": 1882,
      "ream": 1883,
      "ĠMich": 1884,
      "ords": 1885,
      "Ġinterest": 1886,
      "Ġvarious": 1887,
      "atic": 1888,
      "ivil": 1889,
      "Ġareas": 1890,
      "ĠAlthough": 1891,
      "ĠAtl": 1892,
      "Ġhuman": 1893,
      "imately": 1894,
      "Ġtour": 1895,
      "Ġnight": 1896,
      "Ġblack": 1897,
      "ones": 1898,
      "Ġfull": 1899,
      "Ġdied": 1900,
      "Ġwent": 1901,
      "Ġlook": 1902,
      "Ġtyp": 1903,
      "ket": 1904,
      "Ġwat": 1905,
      "utes": 1906,
      "Ġwhite": 1907,
      "Ġrad": 1908,
      "Ġprot": 1909,
      "ĠHa": 1910,
      "Ġactiv": 1911,
      "Ġdoes": 1912,
      "Ġsuccessful": 1913,
      "ĠBlack": 1914,
      "aign": 1915,
      "Ġevents": 1916,
      "Ġneed": 1917,
      "Ġlaw": 1918,
      "ief": 1919,
      "Ġstarted": 1920,
      "ges": 1921,
      "Ġplayers": 1922,
      "Ġten": 1923,
      "Ġmm": 1924,
      "ĠRich": 1925,
      "ĠRoy": 1926,
      "ological": 1927,
      "Ġdiscover": 1928,
      "ĠRoad": 1929,
      "yn": 1930,
      "Ġfeet": 1931,
      "Ġformed": 1932,
      "Ġmodern": 1933,
      "Ġcor": 1934,
      "itive": 1935,
      "Ġsee": 1936,
      "Ġpoem": 1937,
      "tain": 1938,
      "Ġrange": 1939,
      "antic": 1940,
      "Ġmix": 1941,
      "Ġhouse": 1942,
      "ung": 1943,
      "Ġrelations": 1944,
      "Ġbuilding": 1945,
      "Ġball": 1946,
      "ĠCounty": 1947,
      "Ġcat": 1948,
      "Ġforce": 1949,
      "Ġcaused": 1950,
      "na": 1951,
      "Ġage": 1952,
      "Ġread": 1953,
      "ĠReg": 1954,
      "Ġprim": 1955,
      "Ġput": 1956,
      "Ġstyle": 1957,
      "Ġche": 1958,
      "ald": 1959,
      "ster": 1960,
      "ĠRober": 1961,
      "ration": 1962,
      "Ġvill": 1963,
      "Ġtechn": 1964,
      "Ġcy": 1965,
      "ĠJames": 1966,
      "Ġtrav": 1967,
      "ael": 1968,
      "alth": 1969,
      "Ġcreated": 1970,
      "Ġofficial": 1971,
      "Ġnovel": 1972,
      "af": 1973,
      "Ġ189": 1974,
      "ico": 1975,
      "omb": 1976,
      "ush": 1977,
      "Ġsuff": 1978,
      "Ġ2004": 1979,
      "ĠYou": 1980,
      "Ġke": 1981,
      "Ġable": 1982,
      "Ġentire": 1983,
      "Ġpolitical": 1984,
      "ask": 1985,
      "ourn": 1986,
      "Ġ2005": 1987,
      "Ġcharacters": 1988,
      "ĠFeder": 1989,
      "ogn": 1990,
      "Ġget": 1991,
      "Ġothers": 1992,
      "Ġrelig": 1993,
      "Ġcoast": 1994,
      "ĠPal": 1995,
      "ĠEl": 1996,
      "con": 1997,
      "Ġbegin": 1998,
      "aves": 1999,
      "abor": 2000,
      "ring": 2001,
      "iness": 2002,
      "isc": 2003,
      "Ġbird": 2004,
      "oll": 2005,
      "Ġoccur": 2006,
      "epend": 2007,
      "Ġson": 2008,
      "Ġpit": 2009,
      "Ġpri": 2010,
      "ublic": 2011,
      "Ġperformance": 2012,
      "ĠSu": 2013,
      "ĠâĢĻ": 2014,
      "ĠHigh": 2015,
      "ĠChar": 2016,
      "day": 2017,
      "Ġonce": 2018,
      "ressed": 2019,
      "Ġconstruction": 2020,
      "ying": 2021,
      "ample": 2022,
      "Ġremained": 2023,
      "ĠGl": 2024,
      "Ġlocated": 2025,
      "ination": 2026,
      "iting": 2027,
      "asing": 2028,
      "ĠMag": 2029,
      "Ġste": 2030,
      "ĠEv": 2031,
      "isted": 2032,
      "Ġbecom": 2033,
      "Ġsurv": 2034,
      "fall": 2035,
      "Ġtro": 2036,
      "rest": 2037,
      "Ġsum": 2038,
      "Ġlik": 2039,
      "ĠEar": 2040,
      "Ġscored": 2041,
      "Ġworks": 2042,
      "Ġdiffic": 2043,
      "Ġbattle": 2044,
      "Ġdifficult": 2045,
      "ected": 2046,
      "Ġproduc": 2047,
      "Ġpromot": 2048,
      "Ġred": 2049,
      "Ġmeet": 2050,
      "Ġcompleted": 2051,
      "ĠAustralian": 2052,
      "Ġcampaign": 2053,
      "Ġtradition": 2054,
      "Ġannounced": 2055,
      "ĠCor": 2056,
      "ĠAng": 2057,
      "ĠIsland": 2058,
      "uck": 2059,
      "Ġregion": 2060,
      "ertain": 2061,
      "ĠKingdom": 2062,
      "ator": 2063,
      "Ġrank": 2064,
      "Ġrock": 2065,
      "ĠWhile": 2066,
      "Ġguns": 2067,
      "Ġfig": 2068,
      "Ġredu": 2069,
      "Ġnational": 2070,
      "Ġstars": 2071,
      "iers": 2072,
      "ĠTown": 2073,
      "rie": 2074,
      "Ġprocess": 2075,
      "Ġlittle": 2076,
      "ĠCompany": 2077,
      "Ġsk": 2078,
      "Ġfav": 2079,
      "Ġfight": 2080,
      "Ġhold": 2081,
      "Ġgoal": 2082,
      "Ġinstead": 2083,
      "Ġhelp": 2084,
      "Ġtre": 2085,
      "ĠCup": 2086,
      "irc": 2087,
      "Ġhighway": 2088,
      "ĠCal": 2089,
      "ĠMor": 2090,
      "Ġgrow": 2091,
      "Ġval": 2092,
      "ĠSec": 2093,
      "Ġadded": 2094,
      "itted": 2095,
      "Ġgl": 2096,
      "ivid": 2097,
      "rought": 2098,
      "Ġcross": 2099,
      "Ġpred": 2100,
      "Ġlet": 2101,
      "Ġleast": 2102,
      "Ġfollowed": 2103,
      "Ġfac": 2104,
      "Ġfront": 2105,
      "ament": 2106,
      "ounc": 2107,
      "Ġpeak": 2108,
      "Ġappeared": 2109,
      "Ġborn": 2110,
      "Ġrev": 2111,
      "Ġ31": 2112,
      "Ġkilled": 2113,
      "leet": 2114,
      "quad": 2115,
      "Ġknow": 2116,
      "Ġmonths": 2117,
      "reg": 2118,
      "Ġwife": 2119,
      "Ġcomment": 2120,
      "elling": 2121,
      "ĠArmy": 2122,
      "Ġoriginally": 2123,
      "Ġer": 2124,
      "Ġsouthern": 2125,
      "orse": 2126,
      "ĠSom": 2127,
      "Ġcas": 2128,
      "Ġloss": 2129,
      "Ġfif": 2130,
      "enced": 2131,
      "Ġhurricane": 2132,
      "Ġnuc": 2133,
      "ries": 2134,
      "oice": 2135,
      "Ġwomen": 2136,
      "ality": 2137,
      "Ġassoci": 2138,
      "Ġeastern": 2139,
      "ĠKe": 2140,
      "Ġagre": 2141,
      "ĠGrand": 2142,
      "bo": 2143,
      "Ġident": 2144,
      "Ġrelationship": 2145,
      "Ã¡": 2146,
      "ÃŃ": 2147,
      "Ġmass": 2148,
      "ĠBill": 2149,
      "Ġ29": 2150,
      "Ġmother": 2151,
      "Ġ2003": 2152,
      "angu": 2153,
      "Ġaccom": 2154,
      "Ġcritics": 2155,
      "Ġeventually": 2156,
      "com": 2157,
      "off": 2158,
      "Ġ185": 2159,
      "Ġ40": 2160,
      "ĠFrance": 2161,
      "gr": 2162,
      "ray": 2163,
      "Ġaward": 2164,
      "Ġbus": 2165,
      "lect": 2166,
      "ĠCare": 2167,
      "field": 2168,
      "Ġlive": 2169,
      "idd": 2170,
      "Ġfeatures": 2171,
      "Ġbroad": 2172,
      "Ġaud": 2173,
      "Ġcond": 2174,
      "Ġconv": 2175,
      "Ġanim": 2176,
      "Ġyoung": 2177,
      "Ġtaken": 2178,
      "Ġcell": 2179,
      "Ġstri": 2180,
      "ĠOl": 2181,
      "app": 2182,
      "Ġ2015": 2183,
      "Ġappoin": 2184,
      "Ġfourth": 2185,
      "here": 2186,
      "Ġrecogn": 2187,
      "Ġroute": 2188,
      "Ġbar": 2189,
      "Ġserved": 2190,
      "ully": 2191,
      "Äģ": 2192,
      "ota": 2193,
      "emy": 2194,
      "Ġestim": 2195,
      "Ġdamage": 2196,
      "Ġprofess": 2197,
      "Ġlack": 2198,
      "Ġheavy": 2199,
      "antry": 2200,
      "arliam": 2201,
      "ĠDavid": 2202,
      "ique": 2203,
      "inal": 2204,
      "Ġsw": 2205,
      "Ġbase": 2206,
      "Ġeither": 2207,
      "ĠDes": 2208,
      "Ġsex": 2209,
      "Ġdecided": 2210,
      "Ġaver": 2211,
      "osaur": 2212,
      "ĠLove": 2213,
      "Ġproble": 2214,
      "Ġvoc": 2215,
      "ĠSw": 2216,
      "ĠHam": 2217,
      "Ġcommer": 2218,
      "Ġbehind": 2219,
      "Ġtoget": 2220,
      "olution": 2221,
      "azine": 2222,
      "Ġbelieved": 2223,
      "ĠBattalion": 2224,
      "Ġtogether": 2225,
      "Ġmor": 2226,
      "Ġcondom": 2227,
      "Ġsepar": 2228,
      "chie": 2229,
      "Ġsuper": 2230,
      "aper": 2231,
      "Ġarg": 2232,
      "ille": 2233,
      "ought": 2234,
      "Ġplaying": 2235,
      "ountain": 2236,
      "Ġindivid": 2237,
      "arliament": 2238,
      "ĠTo": 2239,
      "Ġimpro": 2240,
      "Ġve": 2241,
      "igned": 2242,
      "ground": 2243,
      "mar": 2244,
      "Ġcreat": 2245,
      "Ġexample": 2246,
      "Ġspecial": 2247,
      "ouncil": 2248,
      "Ġalmost": 2249,
      "Ġclos": 2250,
      "Ġclose": 2251,
      "ĠRec": 2252,
      "Ġmove": 2253,
      "ĠRoyal": 2254,
      "Ġ188": 2255,
      "ization": 2256,
      "Ġaccept": 2257,
      "ements": 2258,
      "Ġleading": 2259,
      "Ġburn": 2260,
      "Ġask": 2261,
      "ĠEx": 2262,
      "Ġgenerally": 2263,
      "hys": 2264,
      "Ġservice": 2265,
      "Ġround": 2266,
      "Ġtowards": 2267,
      "Ġmater": 2268,
      "Ġelements": 2269,
      "Ġopened": 2270,
      "ĠMex": 2271,
      "ĠRobert": 2272,
      "ĠCarey": 2273,
      "Ġfall": 2274,
      "Ġhy": 2275,
      "aching": 2276,
      "Ġsour": 2277,
      "Ġbrought": 2278,
      "Ġdou": 2279,
      "Ġlangu": 2280,
      "urb": 2281,
      "Ġarm": 2282,
      "ĠBrigade": 2283,
      "Ġweeks": 2284,
      "ĠEuropean": 2285,
      "Ġfinished": 2286,
      "iction": 2287,
      "Ġce": 2288,
      "Ġcirc": 2289,
      "Ġmiss": 2290,
      "Ġra": 2291,
      "illa": 2292,
      "rict": 2293,
      "Ġlaun": 2294,
      "Ġsaw": 2295,
      "icated": 2296,
      "ĠSer": 2297,
      "ceed": 2298,
      "ĠGod": 2299,
      "Ġfeatured": 2300,
      "cial": 2301,
      "Ġhost": 2302,
      "Ġnon": 2303,
      "ĠViet": 2304,
      "Ġrespect": 2305,
      "Ġquar": 2306,
      "Ġstudy": 2307,
      "Ġaircraft": 2308,
      "Ġregular": 2309,
      "iation": 2310,
      "Ġdraw": 2311,
      "ida": 2312,
      "ĠBro": 2313,
      "Ġenc": 2314,
      "iron": 2315,
      "ĠIr": 2316,
      "ests": 2317,
      "Ġvol": 2318,
      "Ġcoll": 2319,
      "Ġgeneral": 2320,
      "hic": 2321,
      "ned": 2322,
      "read": 2323,
      "Ġrese": 2324,
      "ston": 2325,
      "etwork": 2326,
      "Ġelect": 2327,
      "Ġdirected": 2328,
      "Ġpoints": 2329,
      "ze": 2330,
      "ounted": 2331,
      "Ġcentral": 2332,
      "Ġprovided": 2333,
      "Ġaction": 2334,
      "ĠSy": 2335,
      "ĠInternational": 2336,
      "ordan": 2337,
      "Ġmeas": 2338,
      "ways": 2339,
      "ĠMusic": 2340,
      "val": 2341,
      "Ġfund": 2342,
      "Ġinform": 2343,
      "Ġupon": 2344,
      "Ġdirector": 2345,
      "iol": 2346,
      "Ġwall": 2347,
      "ĠChampionship": 2348,
      "Ġmean": 2349,
      "ĠWhite": 2350,
      "Ġappearance": 2351,
      "oo": 2352,
      "Ġwid": 2353,
      "ĠTwo": 2354,
      "ĠMon": 2355,
      "ĠHen": 2356,
      "umb": 2357,
      "Ġearlier": 2358,
      "eum": 2359,
      "Ġmi": 2360,
      "ĠSome": 2361,
      "ĠBer": 2362,
      "odes": 2363,
      "Ġyard": 2364,
      "Ġ186": 2365,
      "ency": 2366,
      "irl": 2367,
      "Ġsequ": 2368,
      "Ġrather": 2369,
      "Ġking": 2370,
      "Ġ35": 2371,
      "Ġflood": 2372,
      "Ġfemale": 2373,
      "ĠAtlantic": 2374,
      "bit": 2375,
      "oid": 2376,
      "ino": 2377,
      "ĠCr": 2378,
      "ĠWales": 2379,
      "Ġindust": 2380,
      "medi": 2381,
      "Ġcurrent": 2382,
      "Ġtroops": 2383,
      "ollowing": 2384,
      "Ġlargest": 2385,
      "Ġvictory": 2386,
      "oring": 2387,
      "Ġreve": 2388,
      "ĠPart": 2389,
      "Ġdev": 2390,
      "Ġsubsequ": 2391,
      "Ġemploy": 2392,
      "Ġparticularly": 2393,
      "Ġmanager": 2394,
      "ming": 2395,
      "Ġachie": 2396,
      "Ġcost": 2397,
      "ĠHouse": 2398,
      "ĠJew": 2399,
      "Ġ2014": 2400,
      "cher": 2401,
      "uter": 2402,
      "ĠAct": 2403,
      "ĠPres": 2404,
      "Ġoperations": 2405,
      "Ġopening": 2406,
      "ĠHero": 2407,
      "Ġwanted": 2408,
      "mb": 2409,
      "stit": 2410,
      "Ġcondu": 2411,
      "ĠChristian": 2412,
      "eler": 2413,
      "Ġbeg": 2414,
      "ĠEast": 2415,
      "orts": 2416,
      "Ġyards": 2417,
      "iber": 2418,
      "orida": 2419,
      "Ġcut": 2420,
      "ouri": 2421,
      "Ġreason": 2422,
      "acy": 2423,
      "ĠRed": 2424,
      "Ġriver": 2425,
      "Ġprob": 2426,
      "Ġexc": 2427,
      "ude": 2428,
      "ounter": 2429,
      "ĠThom": 2430,
      "Ġevidence": 2431,
      "ĠRep": 2432,
      "Ġnorthern": 2433,
      "Ġmember": 2434,
      "ĠDay": 2435,
      "anding": 2436,
      "Ġinsp": 2437,
      "cast": 2438,
      "Ġleng": 2439,
      "Ġstage": 2440,
      "Ġ500": 2441,
      "Ġoutside": 2442,
      "Ġcrew": 2443,
      "Ġallowed": 2444,
      "Ġpossible": 2445,
      "Ġengine": 2446,
      "Ġfoc": 2447,
      "Ġbi": 2448,
      "ĠMary": 2449,
      "Ġstren": 2450,
      "ĠStreet": 2451,
      "ption": 2452,
      "Ġsaying": 2453,
      "ĠGeorge": 2454,
      "eal": 2455,
      "ellow": 2456,
      "Ġill": 2457,
      "erous": 2458,
      "atural": 2459,
      "Ġhit": 2460,
      "ĠMad": 2461,
      "ĠHar": 2462,
      "Ġwhom": 2463,
      "Ġhours": 2464,
      "west": 2465,
      "Ġcase": 2466,
      "anch": 2467,
      "ania": 2468,
      "ential": 2469,
      "ĠRock": 2470,
      "Ġfort": 2471,
      "Ġdeter": 2472,
      "Ġexist": 2473,
      "action": 2474,
      "Ġworked": 2475,
      "Ġregard": 2476,
      "ĠPlay": 2477,
      "ĠMissouri": 2478,
      "sel": 2479,
      "ators": 2480,
      "alt": 2481,
      "Ġ2001": 2482,
      "Ġpract": 2483,
      "Ġstreng": 2484,
      "atin": 2485,
      "ama": 2486,
      "ĠMed": 2487,
      "Ġworking": 2488,
      "Ġterrit": 2489,
      "Ġrespons": 2490,
      "Ġlength": 2491,
      "cent": 2492,
      "Ġmot": 2493,
      "ĠDu": 2494,
      "Ġnews": 2495,
      "ores": 2496,
      "Ġreb": 2497,
      "ĠGame": 2498,
      "artment": 2499,
      "board": 2500,
      "Ġmaterial": 2501,
      "After": 2502,
      "ata": 2503,
      "Ġbur": 2504,
      "Ġgold": 2505,
      "Ġpoor": 2506,
      "Ġdesigned": 2507,
      "Ġfree": 2508,
      "Ġmach": 2509,
      "Ġlove": 2510,
      "ĠBay": 2511,
      "Ġseem": 2512,
      "ump": 2513,
      "Ġneg": 2514,
      "Ġren": 2515,
      "Ġnomin": 2516,
      "thod": 2517,
      "Ġstay": 2518,
      "Ġpraised": 2519,
      "uel": 2520,
      "Ġforced": 2521,
      "ĠJordan": 2522,
      "ights": 2523,
      "ishing": 2524,
      "Ġremains": 2525,
      "ĠIndian": 2526,
      "Ġavail": 2527,
      "Ġfootball": 2528,
      "ĠFederer": 2529,
      "conom": 2530,
      "Ġrul": 2531,
      "Ġ187": 2532,
      "ĠCommand": 2533,
      "less": 2534,
      "Ġbill": 2535,
      "Ġthink": 2536,
      "ĠCo": 2537,
      "Ġstation": 2538,
      "ĠOther": 2539,
      "Ġwinds": 2540,
      "lo": 2541,
      "Ġcop": 2542,
      "ĠBra": 2543,
      "Ġquick": 2544,
      "Ġgoals": 2545,
      "Ġincreased": 2546,
      "Ġcontract": 2547,
      "ĠPhil": 2548,
      "Ġtreat": 2549,
      "heast": 2550,
      "ened": 2551,
      "Ġpast": 2552,
      "Ġdi": 2553,
      "aps": 2554,
      "Ġ1970": 2555,
      "Ġpreviously": 2556,
      "ĠÂ£": 2557,
      "ius": 2558,
      "vest": 2559,
      "ica": 2560,
      "Ġgre": 2561,
      "ĠPaul": 2562,
      "ago": 2563,
      "Ġabove": 2564,
      "gypt": 2565,
      "ĠOliv": 2566,
      "gg": 2567,
      "ule": 2568,
      "vert": 2569,
      "Ġsoon": 2570,
      "Ġinvest": 2571,
      "Ġreplaced": 2572,
      "ĠFlorida": 2573,
      "ĠMy": 2574,
      "ĠOd": 2575,
      "Ġcivil": 2576,
      "ĠBest": 2577,
      "Ġviol": 2578,
      "Ġcompos": 2579,
      "Ġbusiness": 2580,
      "ana": 2581,
      "Ġhon": 2582,
      "Ġinterview": 2583,
      "erved": 2584,
      "Ġmer": 2585,
      "Ġthreat": 2586,
      "ession": 2587,
      "ributed": 2588,
      "Ġwriter": 2589,
      "ĠTech": 2590,
      "ĠÂ°": 2591,
      "Ġcommercial": 2592,
      "asion": 2593,
      "Ġmph": 2594,
      "irth": 2595,
      "ĠHill": 2596,
      "ĠEgypt": 2597,
      "Ġunits": 2598,
      "hens": 2599,
      "ĠMichael": 2600,
      "Ġestimated": 2601,
      "xas": 2602,
      "onst": 2603,
      "Ġclear": 2604,
      "ara": 2605,
      "Ġly": 2606,
      "Ġ2000": 2607,
      "Ġaccount": 2608,
      "anned": 2609,
      "Ġesc": 2610,
      "Ġsomet": 2611,
      "Ġpain": 2612,
      "ĠCap": 2613,
      "ĠMark": 2614,
      "ĠBut": 2615,
      "ĠQue": 2616,
      "ography": 2617,
      "Ġclaimed": 2618,
      "Ġjoined": 2619,
      "Ġhighest": 2620,
      "ĠRichard": 2621,
      "uation": 2622,
      "wh": 2623,
      "Ġtrib": 2624,
      "ĠSan": 2625,
      "utive": 2626,
      "Ġplaced": 2627,
      "Ġ1990": 2628,
      "Ġspecific": 2629,
      "Ġsurf": 2630,
      "Ġinvolved": 2631,
      "ye": 2632,
      "Ġz": 2633,
      "Ġmust": 2634,
      "ĠTimes": 2635,
      "Ġlo": 2636,
      "ĠWil": 2637,
      "Ġsigned": 2638,
      "Ġdiscuss": 2639,
      "Ġsuggested": 2640,
      "ĠHenry": 2641,
      "ĠCro": 2642,
      "ĠWal": 2643,
      "Ġparts": 2644,
      "Ġcourt": 2645,
      "ĠJapanese": 2646,
      "Ġwestern": 2647,
      "ĠBrown": 2648,
      "Ġintens": 2649,
      "Ġ183": 2650,
      "ĠDep": 2651,
      "BC": 2652,
      "oms": 2653,
      "ĠGal": 2654,
      "Ġleague": 2655,
      "clus": 2656,
      "Ġitself": 2657,
      "Ġpriv": 2658,
      "ĠVietn": 2659,
      "Ġpers": 2660,
      "ĠFirst": 2661,
      "istic": 2662,
      "wood": 2663,
      "Ġobject": 2664,
      "Ġaverage": 2665,
      "ĠPresident": 2666,
      "tt": 2667,
      "Ġtaking": 2668,
      "iter": 2669,
      "thlet": 2670,
      "Ġproper": 2671,
      "Ġchange": 2672,
      "Ġshot": 2673,
      "Ġquarter": 2674,
      "Ġavailable": 2675,
      "ington": 2676,
      "olic": 2677,
      "Ġcome": 2678,
      "Ġexcept": 2679,
      "Ġscene": 2680,
      "ĠIndia": 2681,
      "ĠCarol": 2682,
      "ĠCanada": 2683,
      "Ġintroduced": 2684,
      "Ġcycl": 2685,
      "ĠMexico": 2686,
      "now": 2687,
      "ving": 2688,
      "Ġfly": 2689,
      "ĠSchool": 2690,
      "Ġwhose": 2691,
      "ĠKh": 2692,
      "ĠArab": 2693,
      "Ġterm": 2694,
      "Ġvillage": 2695,
      "ita": 2696,
      "Ġinj": 2697,
      "Ġhous": 2698,
      "achel": 2699,
      "ĠDr": 2700,
      "Ġheav": 2701,
      "Ġrecording": 2702,
      "Ġtransfer": 2703,
      "Ġbrother": 2704,
      "bor": 2705,
      "nes": 2706,
      "sc": 2707,
      "ximately": 2708,
      "ĠCong": 2709,
      "Ġtransport": 2710,
      "Ġreligious": 2711,
      "ready": 2712,
      "Ġpen": 2713,
      "lected": 2714,
      "ĠMost": 2715,
      "ĠBus": 2716,
      "quar": 2717,
      "Ġbreak": 2718,
      "porary": 2719,
      "AF": 2720,
      "band": 2721,
      "Ġslow": 2722,
      "Ġtold": 2723,
      "Ġnetwork": 2724,
      "ĠHall": 2725,
      "Ġrace": 2726,
      "Ġ36": 2727,
      "ĠVal": 2728,
      "Ġshows": 2729,
      "Ġdamaged": 2730,
      "Ġtravel": 2731,
      "rated": 2732,
      "Ġdon": 2733,
      "acing": 2734,
      "Ġstop": 2735,
      "ĠPac": 2736,
      "ĠGovern": 2737,
      "Ġrail": 2738,
      "pected": 2739,
      "Ġexec": 2740,
      "Ġremov": 2741,
      "Ġ1960": 2742,
      "Ġincreasing": 2743,
      "Ġturned": 2744,
      "Ġmult": 2745,
      "Ġlines": 2746,
      "Ġnames": 2747,
      "Ġgive": 2748,
      "Ġsubject": 2749,
      "ĠBritain": 2750,
      "ĠRepublic": 2751,
      "for": 2752,
      "Ġnine": 2753,
      "ett": 2754,
      "ĠGreat": 2755,
      "Ġdespite": 2756,
      "Ġdefend": 2757,
      "Ġnearly": 2758,
      "Ġpossib": 2759,
      "Ġappointed": 2760,
      "ĠIrish": 2761,
      "Ġsize": 2762,
      "Ġpie": 2763,
      "ĠCard": 2764,
      "oney": 2765,
      "Ġfeel": 2766,
      "ĠScient": 2767,
      "Ġcomplet": 2768,
      "ĠZeal": 2769,
      "Ġcommunity": 2770,
      "ĠZealand": 2771,
      "Ġop": 2772,
      "Ġphys": 2773,
      "Ġdate": 2774,
      "Ġhard": 2775,
      "Ġeconom": 2776,
      "elled": 2777,
      "Ġdiss": 2778,
      "Ġindepend": 2779,
      "Ġsurround": 2780,
      "Ġpassed": 2781,
      "Ġstructure": 2782,
      "ault": 2783,
      "Ġcertain": 2784,
      "Ġinternational": 2785,
      "Ġpur": 2786,
      "ĠSun": 2787,
      "iding": 2788,
      "ĠVir": 2789,
      "ĠUnion": 2790,
      "ronic": 2791,
      "Ġestablish": 2792,
      "Ġinitially": 2793,
      "pecially": 2794,
      "ĠThomas": 2795,
      "ĠOlivier": 2796,
      "Ġ?": 2797,
      "head": 2798,
      "ĠIm": 2799,
      "Ġwithd": 2800,
      "Ġalready": 2801,
      "Ġ184": 2802,
      "Ġimmedi": 2803,
      "Ġgrad": 2804,
      "Ġgoing": 2805,
      "Ġeduc": 2806,
      "ĠOldham": 2807,
      "Ġsocial": 2808,
      "cript": 2809,
      "Ġfailed": 2810,
      "Ġmight": 2811,
      "ĠMac": 2812,
      "ume": 2813,
      "Ġdeal": 2814,
      "Ġrap": 2815,
      "Ġchap": 2816,
      "Ġ60": 2817,
      "Ġassist": 2818,
      "inese": 2819,
      "anna": 2820,
      "Ġwinning": 2821,
      "Ġliter": 2822,
      "Ġarchae": 2823,
      "Ġstates": 2824,
      "osing": 2825,
      "Ġtraining": 2826,
      "ĠChinese": 2827,
      "hedral": 2828,
      "Ġscore": 2829,
      "Ġdisplay": 2830,
      "Ġaccording": 2831,
      "Ġcapital": 2832,
      "Ġoccup": 2833,
      "Ġtype": 2834,
      "ĠMcC": 2835,
      "Ġespecially": 2836,
      "Ġprobably": 2837,
      "ĠPacific": 2838,
      "Ġfood": 2839,
      "arily": 2840,
      "Ġdoc": 2841,
      "ĠSm": 2842,
      "iff": 2843,
      "Ġ45": 2844,
      "Ġminor": 2845,
      "Ġissue": 2846,
      "Ġdebut": 2847,
      "Ġtest": 2848,
      "Ġwood": 2849,
      "Ġfut": 2850,
      "aled": 2851,
      "Ġmale": 2852,
      "Ġdaugh": 2853,
      "urt": 2854,
      "Ġ2002": 2855,
      "Ġstudio": 2856,
      "Ġforest": 2857,
      "heeler": 2858,
      "Ġtow": 2859,
      "Ġconn": 2860,
      "ruction": 2861,
      "rick": 2862,
      "Ġspent": 2863,
      "ĠIII": 2864,
      "Ġarrived": 2865,
      "Ġordered": 2866,
      "Ġlanguage": 2867,
      "rem": 2868,
      "ĠTor": 2869,
      "ĠGold": 2870,
      "ĠJin": 2871,
      "pper": 2872,
      "Ġarmy": 2873,
      "ĠThat": 2874,
      "Ġenough": 2875,
      "Ġremaining": 2876,
      "Ġparticip": 2877,
      "Ġvisit": 2878,
      "ĠCanadian": 2879,
      "Ġfail": 2880,
      "Ġmem": 2881,
      "ĠAg": 2882,
      "ĠSl": 2883,
      "ĠCath": 2884,
      "Ġforward": 2885,
      "ĠNavy": 2886,
      "odies": 2887,
      "ĠEm": 2888,
      "ĠColle": 2889,
      "Ġmixed": 2890,
      "Ġsometimes": 2891,
      "atory": 2892,
      "Ġcru": 2893,
      "Ġcomplete": 2894,
      "Ġapproximately": 2895,
      "Ġreviews": 2896,
      "St": 2897,
      "fect": 2898,
      "hib": 2899,
      "ties": 2900,
      "aries": 2901,
      "Ġpot": 2902,
      "ĠAc": 2903,
      "Ġlatter": 2904,
      "ays": 2905,
      "ĠHel": 2906,
      "ulated": 2907,
      "abit": 2908,
      "Ġrequired": 2909,
      "gl": 2910,
      "ula": 2911,
      "Ġrain": 2912,
      "ĠUK": 2913,
      "Ġabs": 2914,
      "Ġincludes": 2915,
      "Ġcenter": 2916,
      "Ġremain": 2917,
      "ference": 2918,
      "ĠAssoci": 2919,
      "ĠAfrica": 2920,
      "Ġbeginning": 2921,
      "arm": 2922,
      "ilities": 2923,
      "ulf": 2924,
      "Ġblock": 2925,
      "ĠGuitar": 2926,
      "eth": 2927,
      "Ġlower": 2928,
      "ĠCreek": 2929,
      "ĠMont": 2930,
      "ĠRose": 2931,
      "ateg": 2932,
      "Ġdecision": 2933,
      "Ġanti": 2934,
      "Ġlimited": 2935,
      "ĠSuper": 2936,
      "enes": 2937,
      "ste": 2938,
      "chol": 2939,
      "ĠNY": 2940,
      "Ġusually": 2941,
      "Ġadditional": 2942,
      "Ġchanges": 2943,
      "As": 2944,
      "ication": 2945,
      "rian": 2946,
      "Ġbetter": 2947,
      "Ġpresident": 2948,
      "Ġrunning": 2949,
      "ĠRegiment": 2950,
      "itz": 2951,
      "ites": 2952,
      "Ġden": 2953,
      "ĠEver": 2954,
      "Ġkey": 2955,
      "Ġjourn": 2956,
      "Ġpositive": 2957,
      "Ġlarger": 2958,
      "Ġstudents": 2959,
      "ĠPeter": 2960,
      "Ġwoman": 2961,
      "Ġmention": 2962,
      "omm": 2963,
      "ĠMos": 2964,
      "Ġdead": 2965,
      "Ġended": 2966,
      "Ġsupported": 2967,
      "ĠAngel": 2968,
      "quadron": 2969,
      "Ġtouch": 2970,
      "lymp": 2971,
      "ĠDon": 2972,
      "ĠOlymp": 2973,
      "Ġpolice": 2974,
      "Ġdepression": 2975,
      "Ġmagazine": 2976,
      "Ġpressure": 2977,
      "onse": 2978,
      "Ġwide": 2979,
      "ĠAward": 2980,
      "ĠSoc": 2981,
      "ĠHurricane": 2982,
      "aval": 2983,
      "Ġpoet": 2984,
      "ĠÃ": 2985,
      "edy": 2986,
      "Ġcal": 2987,
      "ĠSing": 2988,
      "ĠHist": 2989,
      "ĠPenn": 2990,
      "ĠLaw": 2991,
      "ĠJer": 2992,
      "Ġshown": 2993,
      "Ġquest": 2994,
      "Ġprevent": 2995,
      "Ġbirds": 2996,
      "of": 2997,
      "ĠMo": 2998,
      "ĠNort": 2999,
      "aph": 3000,
      "aker": 3001,
      "Ġspace": 3002,
      "Ġrelated": 3003,
      "ĠBillboard": 3004,
      "Ġfuture": 3005,
      "back": 3006,
      "tr": 3007,
      "ases": 3008,
      "ĠAwards": 3009,
      "Ġnotes": 3010,
      "Ġ1980": 3011,
      "Ġprovide": 3012,
      "Ġdefeated": 3013,
      "Ġfifth": 3014,
      "go": 3015,
      "rd": 3016,
      "to": 3017,
      "Ġface": 3018,
      "Ġhom": 3019,
      "ĠLater": 3020,
      "uments": 3021,
      "Ġ38": 3022,
      "Ġ1995": 3023,
      "ĠScott": 3024,
      "Ġdiscovered": 3025,
      "ih": 3026,
      "leg": 3027,
      "stant": 3028,
      "owl": 3029,
      "Ġstaff": 3030,
      "ĠVer": 3031,
      "Ġfeature": 3032,
      "Ġtemper": 3033,
      "men": 3034,
      "ĠTV": 3035,
      "ĠRachel": 3036,
      "Ġanc": 3037,
      "ĠStud": 3038,
      "Ġprior": 3039,
      "Ġbecoming": 3040,
      "Ġlyric": 3041,
      "co": 3042,
      "uals": 3043,
      "Ġbirth": 3044,
      "Ġdoll": 3045,
      "ĠTer": 3046,
      "ids": 3047,
      "irt": 3048,
      "ĠRes": 3049,
      "ands": 3050,
      "ifa": 3051,
      "ĠVar": 3052,
      "aren": 3053,
      "Ġ80": 3054,
      "ĠArt": 3055,
      "Ġresponse": 3056,
      "mitted": 3057,
      "Ġaut": 3058,
      "onc": 3059,
      "Ġcm": 3060,
      "ĠFrom": 3061,
      "Ġsection": 3062,
      "Ġexam": 3063,
      "Ġcompl": 3064,
      "Ġappl": 3065,
      "Ġsmaller": 3066,
      "Ġfrequ": 3067,
      "ĠCharles": 3068,
      "gely": 3069,
      "uk": 3070,
      "inct": 3071,
      "Ġintended": 3072,
      "aring": 3073,
      "idents": 3074,
      "aby": 3075,
      "Ġscreen": 3076,
      "Ġdisp": 3077,
      "Ġgroups": 3078,
      "Ġidea": 3079,
      "ĠScientology": 3080,
      "hem": 3081,
      "unk": 3082,
      "Ġconclud": 3083,
      "riage": 3084,
      "Ġpercent": 3085,
      "Ġthemsel": 3086,
      "Ġmostly": 3087,
      "Ġmetres": 3088,
      "stein": 3089,
      "Ġthemselves": 3090,
      "ee": 3091,
      "ney": 3092,
      "orial": 3093,
      "Ġfleet": 3094,
      "anies": 3095,
      "ĠHot": 3096,
      "ĠWestern": 3097,
      "ĠWheeler": 3098,
      "agon": 3099,
      "quare": 3100,
      "ishop": 3101,
      "Ġcaptured": 3102,
      "Ġreferred": 3103,
      "Ġlikely": 3104,
      "Ġresearch": 3105,
      "Ġsurface": 3106,
      "aut": 3107,
      "down": 3108,
      "Ġword": 3109,
      "Ġfir": 3110,
      "enon": 3111,
      "Ġdomin": 3112,
      "ĠTom": 3113,
      "ching": 3114,
      "iforn": 3115,
      "ĠStar": 3116,
      "Ġ2016": 3117,
      "Ġlargely": 3118,
      "Ġmusical": 3119,
      "Ġminutes": 3120,
      "rief": 3121,
      "Ġprofessional": 3122,
      "Ġproblems": 3123,
      "ĠVirgin": 3124,
      "ĠAssociation": 3125,
      "Ġflow": 3126,
      "rael": 3127,
      "ĠYear": 3128,
      "Ġindic": 3129,
      "Ġentered": 3130,
      "ĠDespite": 3131,
      "Ġsem": 3132,
      "Ġmakes": 3133,
      "ĠFort": 3134,
      "ĠOff": 3135,
      "Ġcontem": 3136,
      "Ġmoving": 3137,
      "Ġamount": 3138,
      "Ġconfl": 3139,
      "Ġbroadcast": 3140,
      "gar": 3141,
      "ners": 3142,
      "Ġcer": 3143,
      "ĠTur": 3144,
      "ĠLa": 3145,
      "sec": 3146,
      "Ġlearn": 3147,
      "Ġcontains": 3148,
      "Ġoffice": 3149,
      "Ġ75": 3150,
      "Ġconstructed": 3151,
      "Ġradio": 3152,
      "quarters": 3153,
      "gu": 3154,
      "uf": 3155,
      "Ã³": 3156,
      "Ġder": 3157,
      "oul": 3158,
      "Ġlink": 3159,
      "ĠParliament": 3160,
      "Ġens": 3161,
      "Ġ1999": 3162,
      "Ġemb": 3163,
      "Ġkeep": 3164,
      "Ġsummer": 3165,
      "ĠCaliforn": 3166,
      "Al": 3167,
      "bers": 3168,
      "ises": 3169,
      "Ġpair": 3170,
      "Ġmoney": 3171,
      "acted": 3172,
      "ĠRou": 3173,
      "ĠFilm": 3174,
      "pped": 3175,
      "ples": 3176,
      "Ġguitar": 3177,
      "Ġcele": 3178,
      "ios": 3179,
      "ville": 3180,
      "ergy": 3181,
      "itte": 3182,
      "isions": 3183,
      "anish": 3184,
      "Ġnature": 3185,
      "ĠCouncil": 3186,
      "Ġstories": 3187,
      "cean": 3188,
      "Ġsea": 3189,
      "Ġvoice": 3190,
      "Ġgrant": 3191,
      "ĠFrank": 3192,
      "Ġ1950": 3193,
      "Ġmajority": 3194,
      "Ġlisted": 3195,
      "ĠPortug": 3196,
      "ĠEarth": 3197,
      "ĠJewish": 3198,
      "den": 3199,
      "under": 3200,
      "Ġself": 3201,
      "icted": 3202,
      "enty": 3203,
      "Ġlay": 3204,
      "Ġconcept": 3205,
      "apt": 3206,
      "ĠInf": 3207,
      "Ġadop": 3208,
      "Ġcreate": 3209,
      "Ġarrang": 3210,
      "Ġmedia": 3211,
      "Ġobserv": 3212,
      "Ġranked": 3213,
      "veston": 3214,
      "ĠCroat": 3215,
      "uing": 3216,
      "Ġleaving": 3217,
      "Ġcritical": 3218,
      "ĠIsrael": 3219,
      "Ġexperience": 3220,
      "Ġthus": 3221,
      "ĠLight": 3222,
      "ĠOper": 3223,
      "bert": 3224,
      "Ġeffects": 3225,
      "Ġprimary": 3226,
      "Ġfavor": 3227,
      "ires": 3228,
      "lor": 3229,
      "Ġschol": 3230,
      "Ġdro": 3231,
      "enth": 3232,
      "Ġlived": 3233,
      "ĠSov": 3234,
      "urity": 3235,
      "owler": 3236,
      "Ġalways": 3237,
      "Ġconsist": 3238,
      "minist": 3239,
      "Ġbreed": 3240,
      "Ġgods": 3241,
      "Ġagreed": 3242,
      "iest": 3243,
      "tar": 3244,
      "reak": 3245,
      "Ġbrief": 3246,
      "Ġpay": 3247,
      "Ġlab": 3248,
      "ĠRuss": 3249,
      "aven": 3250,
      "Ġrare": 3251,
      "ĠChic": 3252,
      "teen": 3253,
      "Ġfilms": 3254,
      "Ġruns": 3255,
      "ylv": 3256,
      "Ġofficers": 3257,
      "Ġcontroll": 3258,
      "Ġlaunched": 3259,
      "ĠCalifornia": 3260,
      "ping": 3261,
      "Ġcoin": 3262,
      "ĠHow": 3263,
      "ĠOtt": 3264,
      "Ġcolon": 3265,
      "Ġsett": 3266,
      "Ġlocation": 3267,
      "Ġteams": 3268,
      "Ġfriends": 3269,
      "osaurus": 3270,
      "Ġquickly": 3271,
      "ĠCatholic": 3272,
      "ror": 3273,
      "ĠCamp": 3274,
      "ĠHol": 3275,
      "change": 3276,
      "Ġmeant": 3277,
      "Ġepisodes": 3278,
      "Ġminute": 3279,
      "hester": 3280,
      "Ġproposed": 3281,
      "Ġoccurred": 3282,
      "Ġlyrics": 3283,
      "oor": 3284,
      "pan": 3285,
      "pool": 3286,
      "urg": 3287,
      "ĠFI": 3288,
      "ĠJe": 3289,
      "Ġwhether": 3290,
      "oke": 3291,
      "key": 3292,
      "Ġprem": 3293,
      "Ġattr": 3294,
      "Ġassigned": 3295,
      "Ġaccess": 3296,
      "Ġsettle": 3297,
      "Ġincrease": 3298,
      "Ġequip": 3299,
      "kan": 3300,
      "zy": 3301,
      "Ġsat": 3302,
      "atively": 3303,
      "Ġfans": 3304,
      "Ġpian": 3305,
      "ĠWood": 3306,
      "Ġvot": 3307,
      "illery": 3308,
      "Ġforms": 3309,
      "Ġappears": 3310,
      "Ġdefeat": 3311,
      "Ġdestroyed": 3312,
      "nel": 3313,
      "Ġtons": 3314,
      "ĠApp": 3315,
      "imum": 3316,
      "ability": 3317,
      "Ġtraff": 3318,
      "Ġ400": 3319,
      "Ġcommission": 3320,
      "Ġearth": 3321,
      "Ġlonger": 3322,
      "Ġchanged": 3323,
      "ospital": 3324,
      "Ġmeaning": 3325,
      "Ġtraffic": 3326,
      "During": 3327,
      "Th": 3328,
      "asy": 3329,
      "ĠAle": 3330,
      "ĠSaint": 3331,
      "ĠBey": 3332,
      "Ġscript": 3333,
      "Ġjob": 3334,
      "Ġ70": 3335,
      "Ġtheme": 3336,
      "Ġnumbers": 3337,
      "Ġ1940": 3338,
      "Ġsoldiers": 3339,
      "ĠCentral": 3340,
      "Ġbound": 3341,
      "Ġmom": 3342,
      "Ġreach": 3343,
      "aded": 3344,
      "imate": 3345,
      "ĠHaw": 3346,
      "andon": 3347,
      "Ġleave": 3348,
      "Ġtrade": 3349,
      "ruit": 3350,
      "ixon": 3351,
      "vey": 3352,
      "Ġcarried": 3353,
      "onym": 3354,
      "Ġconcern": 3355,
      "Ġawarded": 3356,
      "Ġfocus": 3357,
      "Ġcelebr": 3358,
      "ĠChicago": 3359,
      "Ġhop": 3360,
      "Ġgirl": 3361,
      "ĠPri": 3362,
      "arent": 3363,
      "undred": 3364,
      "ĠBattle": 3365,
      "Ġcompetition": 3366,
      "Ġconducted": 3367,
      "Ġprivate": 3368,
      "Ġdaughter": 3369,
      "Ġsil": 3370,
      "Ġcred": 3371,
      "Ġnatural": 3372,
      "ĠMr": 3373,
      "Ġdeep": 3374,
      "bery": 3375,
      "ĠUnder": 3376,
      "Ġ33": 3377,
      "Ġ1998": 3378,
      "Ġsubsequently": 3379,
      "Ġnewsp": 3380,
      "Ġcause": 3381,
      "ari": 3382,
      "Ġtourn": 3383,
      "ĠFin": 3384,
      "ĠNot": 3385,
      "Ġran": 3386,
      "Ġplans": 3387,
      "Ġ300": 3388,
      "Ġunc": 3389,
      "Ġrecords": 3390,
      "Ġunderst": 3391,
      "Ġconsider": 3392,
      "Ġ1930": 3393,
      "Ġculture": 3394,
      "Ġfighting": 3395,
      "ĠNorthern": 3396,
      "oir": 3397,
      "uz": 3398,
      "Ġtakes": 3399,
      "Ġbord": 3400,
      "Ġded": 3401,
      "iva": 3402,
      "ĠRoss": 3403,
      "ĠFollowing": 3404,
      "ĠLou": 3405,
      "ĠLatin": 3406,
      "ortun": 3407,
      "Ġshoot": 3408,
      "Ġoverall": 3409,
      "Ġ1993": 3410,
      "ification": 3411,
      "ĠScot": 3412,
      "Ġinfluence": 3413,
      "Ġcommented": 3414,
      "Ġindustry": 3415,
      "sis": 3416,
      "Ġcle": 3417,
      "Ġbomb": 3418,
      "usband": 3419,
      "ĠItal": 3420,
      "Ġserious": 3421,
      "Ġfinally": 3422,
      "Ġelection": 3423,
      "Ġbring": 3424,
      "Ġconcert": 3425,
      "ĠQu": 3426,
      "ĠHaifa": 3427,
      "Ġasked": 3428,
      "tained": 3429,
      "ĠMany": 3430,
      "Ġanaly": 3431,
      "Ġdeg": 3432,
      "Ġkil": 3433,
      "Ġcompared": 3434,
      "ĠVilla": 3435,
      "Ġwhole": 3436,
      "Ġimm": 3437,
      "Ġmethod": 3438,
      "Ġending": 3439,
      "ĠBrad": 3440,
      "Ġgreater": 3441,
      "hou": 3442,
      "oly": 3443,
      "Ġdone": 3444,
      "Ġemer": 3445,
      "ĠIf": 3446,
      "ĠBC": 3447,
      "Ġ32": 3448,
      "Ġunable": 3449,
      "ĠEnter": 3450,
      "iverpool": 3451,
      "Ġmarried": 3452,
      "Ġdouble": 3453,
      "stitute": 3454,
      "well": 3455,
      "Ġ+": 3456,
      "inent": 3457,
      "Ġour": 3458,
      "Ġinn": 3459,
      "anced": 3460,
      "aches": 3461,
      "ĠPat": 3462,
      "ĠFore": 3463,
      "erset": 3464,
      "Ġupper": 3465,
      "Ġcann": 3466,
      "anks": 3467,
      "Ġbuildings": 3468,
      "gian": 3469,
      "mas": 3470,
      "Ġsus": 3471,
      "Ġdram": 3472,
      "Ġthick": 3473,
      "ĠMet": 3474,
      "Ġgot": 3475,
      "aylor": 3476,
      "ĠNixon": 3477,
      "umn": 3478,
      "ills": 3479,
      "Ġyet": 3480,
      "ruct": 3481,
      "Ġcentre": 3482,
      "Ġearned": 3483,
      "Ġflight": 3484,
      "Ġpositions": 3485,
      "ĠRoute": 3486,
      "Ġtar": 3487,
      "Ġcounter": 3488,
      "Ġbig": 3489,
      "Ġliving": 3490,
      "ĠMart": 3491,
      "unt": 3492,
      "Ġparty": 3493,
      "aily": 3494,
      "Ġ90": 3495,
      "Ġacqu": 3496,
      "ĠTexas": 3497,
      "Ġissued": 3498,
      "Ġstandard": 3499,
      "ĠSecond": 3500,
      "Ġnucle": 3501,
      "Ġrapid": 3502,
      "gen": 3503,
      "itect": 3504,
      "Ġpurch": 3505,
      "ĠMer": 3506,
      "ĠMil": 3507,
      "ĠNic": 3508,
      "Ġkind": 3509,
      "Ġbox": 3510,
      "Ġenv": 3511,
      "Ġ1996": 3512,
      "Ġterms": 3513,
      "Ġdirectly": 3514,
      "Ġmarket": 3515,
      "Ġpersonal": 3516,
      "Ġbegins": 3517,
      "ĠGalveston": 3518,
      "ittee": 3519,
      "dle": 3520,
      "Ġult": 3521,
      "amer": 3522,
      "ulted": 3523,
      "Ġhero": 3524,
      "Ġhealth": 3525,
      "ĠLady": 3526,
      "Ġscenes": 3527,
      "ĠIts": 3528,
      "ĠAlice": 3529,
      "Ġmovement": 3530,
      "Ġbooks": 3531,
      "Ġmarriage": 3532,
      "ĠPolish": 3533,
      "Ġ-": 3534,
      "ĠTour": 3535,
      "Ġthrow": 3536,
      "ĠCour": 3537,
      "ĠMa": 3538,
      "ĠLake": 3539,
      "ĠLiverpool": 3540,
      "ails": 3541,
      "Ġhelped": 3542,
      "Ġportray": 3543,
      "Ġslight": 3544,
      "Ġmarked": 3545,
      "Ġstatus": 3546,
      "II": 3547,
      "oe": 3548,
      "Ġtell": 3549,
      "Ġbatter": 3550,
      "Ġdom": 3551,
      "ĠTre": 3552,
      "Ġlog": 3553,
      "ĠServ": 3554,
      "ĠForm": 3555,
      "umed": 3556,
      "alled": 3557,
      "Ġplanned": 3558,
      "Ġund": 3559,
      "Ġsched": 3560,
      "Ġstarting": 3561,
      "Ġattacks": 3562,
      "ĠChristmas": 3563,
      "Ġschools": 3564,
      "Ġexperi": 3565,
      "ĠAfrican": 3566,
      "Ġsuffered": 3567,
      "Ġtraditional": 3568,
      "Ġinformation": 3569,
      "itor": 3570,
      "iser": 3571,
      "Ġdig": 3572,
      "Ġdark": 3573,
      "ĠMount": 3574,
      "Ġgiving": 3575,
      "Ġspeed": 3576,
      "ĠSpanish": 3577,
      "Ġfigure": 3578,
      "Ġassociated": 3579,
      "Ġinspired": 3580,
      "AS": 3581,
      "itude": 3582,
      "Ġdivision": 3583,
      "Ġhusband": 3584,
      "ĠTaylor": 3585,
      "ĠMey": 3586,
      "Ġclosed": 3587,
      "Ġabandon": 3588,
      "Ġjud": 3589,
      "athan": 3590,
      "Ġleaders": 3591,
      "embly": 3592,
      "Ġpresented": 3593,
      "Ġsource": 3594,
      "ĠParty": 3595,
      "Ġmachine": 3596,
      "At": 3597,
      "awn": 3598,
      "Ġx": 3599,
      "Ġmur": 3600,
      "olk": 3601,
      "ĠBel": 3602,
      "ĠDj": 3603,
      "ĠOs": 3604,
      "Ġvia": 3605,
      "ĠStr": 3606,
      "Ġpresence": 3607,
      "Ġgreatest": 3608,
      "Ġinitial": 3609,
      "Ġcondoms": 3610,
      "Ġraised": 3611,
      "Ġdetermin": 3612,
      "iant": 3613,
      "Ġwound": 3614,
      "ĠSam": 3615,
      "Ġunit": 3616,
      "ĠVict": 3617,
      "Ġuses": 3618,
      "Ġroom": 3619,
      "Ġwriters": 3620,
      "Ġcontinue": 3621,
      "Ġnearby": 3622,
      "aught": 3623,
      "ĠParis": 3624,
      "ĠSeries": 3625,
      "Ġdocument": 3626,
      "Ã³n": 3627,
      "ĠInfantry": 3628,
      "ks": 3629,
      "ken": 3630,
      "itation": 3631,
      "ĠTenn": 3632,
      "Ġnorm": 3633,
      "ĠCross": 3634,
      "ĠPit": 3635,
      "Ġplot": 3636,
      "raf": 3637,
      "Ġdism": 3638,
      "Ġimage": 3639,
      "ĠAnother": 3640,
      "iami": 3641,
      "Ġcollection": 3642,
      "Ġcovered": 3643,
      "ĠCarolina": 3644,
      "Ġcyclone": 3645,
      "ĠSoviet": 3646,
      "ylvania": 3647,
      "cing": 3648,
      "oration": 3649,
      "Ġhundred": 3650,
      "Ġrein": 3651,
      "Ġchall": 3652,
      "Ġcomposed": 3653,
      "Ġweap": 3654,
      "Ġcomplex": 3655,
      "Ġannual": 3656,
      "Ġservices": 3657,
      "incip": 3658,
      "Ġeducation": 3659,
      "ĠRosebery": 3660,
      "ĠMosley": 3661,
      "ma": 3662,
      "ny": 3663,
      "sen": 3664,
      "erve": 3665,
      "Ġbodies": 3666,
      "Ġreally": 3667,
      "ĠSk": 3668,
      "ĠBoy": 3669,
      "eway": 3670,
      "Ġextended": 3671,
      "ĠStorm": 3672,
      "Ġ1997": 3673,
      "Ġnumerous": 3674,
      "Ġpolic": 3675,
      "Ġcommander": 3676,
      "Ġcathedral": 3677,
      "Ġproducer": 3678,
      "ĠSomerset": 3679,
      "Ġterritory": 3680,
      "ĠQueen": 3681,
      "ĠPenns": 3682,
      "oncÃ©": 3683,
      "bar": 3684,
      "joy": 3685,
      "Ġtor": 3686,
      "atre": 3687,
      "Ġfell": 3688,
      "Ġpark": 3689,
      "Ġpath": 3690,
      "ĠTw": 3691,
      "Ġthings": 3692,
      "adm": 3693,
      "etic": 3694,
      "aging": 3695,
      "Ġdepend": 3696,
      "ĠJane": 3697,
      "ĠOpen": 3698,
      "essa": 3699,
      "Ġuns": 3700,
      "Ġenjoy": 3701,
      "Ġfigures": 3702,
      "Ġvocals": 3703,
      "erbe": 3704,
      "ĠTropical": 3705,
      "ander": 3706,
      "anded": 3707,
      "Ġsevent": 3708,
      "ĠJam": 3709,
      "ift": 3710,
      "Ġ39": 3711,
      "ously": 3712,
      "Ġprep": 3713,
      "Ġsomething": 3714,
      "Ġoperation": 3715,
      "Ġwaters": 3716,
      "ĠCollege": 3717,
      "ĠBeyoncÃ©": 3718,
      "rical": 3719,
      "anz": 3720,
      "anas": 3721,
      "ican": 3722,
      "ĠBob": 3723,
      "ĠNations": 3724,
      "estival": 3725,
      "Ġcompanies": 3726,
      "Ġhighly": 3727,
      "Ġattacked": 3728,
      "Ġattempts": 3729,
      "Ġproteins": 3730,
      "ĠMuseum": 3731,
      "Ġrequest": 3732,
      "Ġmorning": 3733,
      "Ġstrength": 3734,
      "Ġinvestig": 3735,
      "Ġtalk": 3736,
      "Ġreject": 3737,
      "Ġaspect": 3738,
      "ĠBen": 3739,
      "ĠGo": 3740,
      "Ġdise": 3741,
      "Ġfinanc": 3742,
      "Ġperformances": 3743,
      "Ġtransl": 3744,
      "Ġmetal": 3745,
      "ĠGermany": 3746,
      "Ġindividual": 3747,
      "ĠBusch": 3748,
      "Ġimmediately": 3749,
      "admium": 3750,
      "TV": 3751,
      "lim": 3752,
      "mon": 3753,
      "Ġpil": 3754,
      "ĠSquadron": 3755,
      "ademy": 3756,
      "uries": 3757,
      "Ġstone": 3758,
      "ĠFoot": 3759,
      "ĠJust": 3760,
      "apo": 3761,
      "Ġnecess": 3762,
      "Ġincor": 3763,
      "Ġartist": 3764,
      "Ġdistance": 3765,
      "Ġallowing": 3766,
      "Ġconfir": 3767,
      "Ġpowerful": 3768,
      "ĠPrince": 3769,
      "Ġsituation": 3770,
      "Ġera": 3771,
      "Ġnuclear": 3772,
      "Ġremoved": 3773,
      "Ġpiano": 3774,
      "NA": 3775,
      "vement": 3776,
      "olf": 3777,
      "Ġselected": 3778,
      "ipp": 3779,
      "Ġrecover": 3780,
      "lands": 3781,
      "Ġoffered": 3782,
      "Ġstudies": 3783,
      "Ġartillery": 3784,
      "Ġinside": 3785,
      "Ġadvance": 3786,
      "Ġvariety": 3787,
      "Ġneeded": 3788,
      "Ġpeaked": 3789,
      "arents": 3790,
      "ĠPennsylvania": 3791,
      "ha": 3792,
      "Ġhot": 3793,
      "Ġnative": 3794,
      "ĠMiami": 3795,
      "chan": 3796,
      "ĠRob": 3797,
      "Ġattend": 3798,
      "ĠGames": 3799,
      "pted": 3800,
      "Ġ182": 3801,
      "Ġmeans": 3802,
      "Ġ1991": 3803,
      "Ġcountries": 3804,
      "Ġheadquarters": 3805,
      "Ġattempted": 3806,
      "Ġcopies": 3807,
      "ĠScotland": 3808,
      "pole": 3809,
      "rey": 3810,
      "Ġsaf": 3811,
      "rol": 3812,
      "ĠSix": 3813,
      "imony": 3814,
      "ether": 3815,
      "ĠLos": 3816,
      "ria": 3817,
      "anta": 3818,
      "Ġkick": 3819,
      "Ġ42": 3820,
      "Ġscoring": 3821,
      "ĠAlkan": 3822,
      "Ġprincip": 3823,
      "Ġcoach": 3824,
      "ĠClub": 3825,
      "Ġtracks": 3826,
      "Ġhands": 3827,
      "Ġarchitect": 3828,
      "ĠJackson": 3829,
      "ĠEarly": 3830,
      "ĠSomal": 3831,
      "Ġcasual": 3832,
      "Ġrespectively": 3833,
      "Ġresponsible": 3834,
      "Ġpurp": 3835,
      "track": 3836,
      "een": 3837,
      "Ġpurs": 3838,
      "Ġmole": 3839,
      "lement": 3840,
      "ĠAI": 3841,
      "ĠTheir": 3842,
      "Ġsearch": 3843,
      "Ġrule": 3844,
      "arts": 3845,
      "ĠUp": 3846,
      "ĠChina": 3847,
      "Ġ47": 3848,
      "Ġsymb": 3849,
      "Ġadvant": 3850,
      "Ġoppos": 3851,
      "Ġgenus": 3852,
      "Ġhigher": 3853,
      "Ġwidely": 3854,
      "ĠDepartment": 3855,
      "Ġtouchdown": 3856,
      "cer": 3857,
      "ĠSur": 3858,
      "ĠSince": 3859,
      "adium": 3860,
      "cend": 3861,
      "andid": 3862,
      "Ġrate": 3863,
      "ĠInter": 3864,
      "Ġtext": 3865,
      "anger": 3866,
      "Ġspir": 3867,
      "orship": 3868,
      "Ġ1992": 3869,
      "Ġcontrovers": 3870,
      "Ġappearances": 3871,
      "Ġcourse": 3872,
      "Ġobserved": 3873,
      "ĠCorps": 3874,
      "Ġsexual": 3875,
      "Ġheavily": 3876,
      "bour": 3877,
      "reme": 3878,
      "Ġpick": 3879,
      "oud": 3880,
      "ĠAre": 3881,
      "Ġadult": 3882,
      "Ġ1994": 3883,
      "Ġrelief": 3884,
      "Ġamb": 3885,
      "Ġsets": 3886,
      "Ġdescribes": 3887,
      "Ġbelow": 3888,
      "Ġphot": 3889,
      "Ġmiddle": 3890,
      "Ġmeeting": 3891,
      "Ġreduced": 3892,
      "iny": 3893,
      "Ġintern": 3894,
      "icient": 3895,
      "ĠIll": 3896,
      "ĠNor": 3897,
      "Ġplat": 3898,
      "Ġadminist": 3899,
      "Ġresulted": 3900,
      "ĠThree": 3901,
      "Ġboy": 3902,
      "ricket": 3903,
      "Ġsecret": 3904,
      "ĠArch": 3905,
      "Ġactive": 3906,
      "Ġsinger": 3907,
      "Ġmatches": 3908,
      "Ġsixth": 3909,
      "Ġaudience": 3910,
      "nesota": 3911,
      "Ġconcluded": 3912,
      "ĠVirginia": 3913,
      "Ġxenon": 3914,
      "aen": 3915,
      "ga": 3916,
      "ship": 3917,
      "Ġsal": 3918,
      "ĠLive": 3919,
      "ĠOver": 3920,
      "akapo": 3921,
      "Ġtrue": 3922,
      "Ġ44": 3923,
      "inkel": 3924,
      "Ġactivities": 3925,
      "Ġcompletely": 3926,
      "ĠVictor": 3927,
      "iqu": 3928,
      "like": 3929,
      "Ġess": 3930,
      "isher": 3931,
      "arrow": 3932,
      "cts": 3933,
      "Ġstating": 3934,
      "send": 3935,
      "ports": 3936,
      "ĠChris": 3937,
      "ĠMinnesota": 3938,
      "ĠCenter": 3939,
      "Ġactivity": 3940,
      "Ġrevealed": 3941,
      "Ġcontemporary": 3942,
      "ĠAlex": 3943,
      "onna": 3944,
      "atives": 3945,
      "Ġfill": 3946,
      "ĠTem": 3947,
      "ems": 3948,
      "ĠWater": 3949,
      "ocr": 3950,
      "Ġmanaged": 3951,
      "ĠSea": 3952,
      "Ġquality": 3953,
      "Ġgraph": 3954,
      "Ġrefused": 3955,
      "Ġopportun": 3956,
      "Ġlevels": 3957,
      "Ġdeclared": 3958,
      "Ġtrees": 3959,
      "Ġseparate": 3960,
      "ĠItalian": 3961,
      "MS": 3962,
      "gal": 3963,
      "iated": 3964,
      "Ġbad": 3965,
      "ĠTime": 3966,
      "ĠHum": 3967,
      "ologist": 3968,
      "Ġblue": 3969,
      "rowd": 3970,
      "annel": 3971,
      "Ġconstit": 3972,
      "ĠFranc": 3973,
      "Ġdrum": 3974,
      "ĠForce": 3975,
      "Ġquestion": 3976,
      "ĠHawai": 3977,
      "erbeer": 3978,
      "inkelstein": 3979,
      "ining": 3980,
      "Ġparents": 3981,
      "ros": 3982,
      "Ġhabit": 3983,
      "ils": 3984,
      "ĠCer": 3985,
      "ĠLong": 3986,
      "ĠJose": 3987,
      "ify": 3988,
      "aped": 3989,
      "Ġuniversity": 3990,
      "peror": 3991,
      "Ġrecent": 3992,
      "Ġshell": 3993,
      "athus": 3994,
      "Ġblood": 3995,
      "Ġbackground": 3996,
      "ĠShiva": 3997,
      "Ġfeaturing": 3998,
      "Ġinstit": 3999,
      "Ġcarry": 4000,
      "Ġimpact": 4001,
      "Ġmodel": 4002,
      "Ġapproach": 4003,
      "Ġcontrast": 4004,
      "Ġhistorical": 4005,
      "ĠBraat": 4006,
      "ares": 4007,
      "Ġiron": 4008,
      "Ġactions": 4009,
      "anes": 4010,
      "Ġtoday": 4011,
      "ĠMidd": 4012,
      "Ġris": 4013,
      "oph": 4014,
      "Ġexpected": 4015,
      "ĠAnt": 4016,
      "Ġissues": 4017,
      "Ġtypically": 4018,
      "Ġconditions": 4019,
      "Ġmultip": 4020,
      "ĠSociety": 4021,
      "ĠFootball": 4022,
      "Ġtax": 4023,
      "hew": 4024,
      "Ġwing": 4025,
      "alty": 4026,
      "ĠSol": 4027,
      "utch": 4028,
      "Ġrhy": 4029,
      "ĠOut": 4030,
      "rawn": 4031,
      "Ġ51": 4032,
      "Ġplays": 4033,
      "ĠYue": 4034,
      "Ġweaken": 4035,
      "oint": 4036,
      "Ġ76": 4037,
      "Ġpeace": 4038,
      "Ġentr": 4039,
      "Ġmainly": 4040,
      "Ġefforts": 4041,
      "Ġbecomes": 4042,
      "Ġhouses": 4043,
      "force": 4044,
      "cle": 4045,
      "nis": 4046,
      "Ġpow": 4047,
      "Ġpaper": 4048,
      "ĠSouthern": 4049,
      "Ġnation": 4050,
      "ĠFowler": 4051,
      "Ġ37": 4052,
      "Ġresidents": 4053,
      "Ġoffer": 4054,
      "Ġattention": 4055,
      "Ġspecim": 4056,
      "Ġgrand": 4057,
      "Ġemot": 4058,
      "Ġstrugg": 4059,
      "shire": 4060,
      "Ġvehic": 4061,
      "ĠSmith": 4062,
      "ging": 4063,
      "rate": 4064,
      "Ġsense": 4065,
      "Ġwit": 4066,
      "isl": 4067,
      "Ġlot": 4068,
      "Ġnarr": 4069,
      "ado": 4070,
      "ĠMill": 4071,
      "Ġconsec": 4072,
      "Ġang": 4073,
      "ĠEmp": 4074,
      "Ġwebs": 4075,
      "Ġactually": 4076,
      "Ġcalling": 4077,
      "Ġbrown": 4078,
      "ervation": 4079,
      "Ġtitles": 4080,
      "Ġsoundtrack": 4081,
      "ufact": 4082,
      "ĠService": 4083,
      "bed": 4084,
      "ware": 4085,
      "Ġtask": 4086,
      "het": 4087,
      "Ġhair": 4088,
      "istics": 4089,
      "ellig": 4090,
      "Ġroy": 4091,
      "Ġroles": 4092,
      "Ġseasons": 4093,
      "Ġwrite": 4094,
      "ĠJohnson": 4095,
      "ĠBlue": 4096,
      "Ġstruck": 4097,
      "ĠAnderson": 4098,
      "Ġdemonst": 4099,
      "Ġmagn": 4100,
      "ĠHighway": 4101,
      "Ġaccepted": 4102,
      "Ġachieved": 4103,
      "ĠOttoman": 4104,
      "Ġcannot": 4105,
      "ĠCourt": 4106,
      "uated": 4107,
      "Ġathlet": 4108,
      "Ġwear": 4109,
      "Ġbene": 4110,
      "icip": 4111,
      "ĠDam": 4112,
      "Ġrecomm": 4113,
      "Ġresc": 4114,
      "Ġinstr": 4115,
      "Ġfamil": 4116,
      "uese": 4117,
      "Ġrespond": 4118,
      "Ġprotein": 4119,
      "Ġviewers": 4120,
      "ĠHait": 4121,
      "Ġvocal": 4122,
      "Ġpractice": 4123,
      "ĠVietnam": 4124,
      "hood": 4125,
      "ply": 4126,
      "onents": 4127,
      "Ġcorn": 4128,
      "Ġcrowd": 4129,
      "Ġfiction": 4130,
      "Ġthous": 4131,
      "Ġlif": 4132,
      "Ġbeat": 4133,
      "Ġge": 4134,
      "imin": 4135,
      "ĠDel": 4136,
      "aine": 4137,
      "rial": 4138,
      "appen": 4139,
      "Ġ181": 4140,
      "Ġ48": 4141,
      "Ġscient": 4142,
      "ibility": 4143,
      "ĠBoth": 4144,
      "Ġavoid": 4145,
      "Ġprimarily": 4146,
      "Ġsequence": 4147,
      "ĠAcademy": 4148,
      "ĠPortuguese": 4149,
      "eter": 4150,
      "itual": 4151,
      "Ġlb": 4152,
      "ĠBalt": 4153,
      "ĠWild": 4154,
      "ĠJul": 4155,
      "Ġboard": 4156,
      "ounds": 4157,
      "Ġspread": 4158,
      "ribution": 4159,
      "Ġinterse": 4160,
      "Ġelected": 4161,
      "venue": 4162,
      "Ġinfantry": 4163,
      "Ġowned": 4164,
      "Ġtwenty": 4165,
      "Ġcombat": 4166,
      "Ġtypes": 4167,
      "Ġchem": 4168,
      "Ġslightly": 4169,
      "ding": 4170,
      "hold": 4171,
      "writ": 4172,
      "Ġsales": 4173,
      "Ġsister": 4174,
      "Ġmax": 4175,
      "Ġdu": 4176,
      "Ġnin": 4177,
      "acher": 4178,
      "Ġaltern": 4179,
      "ulations": 4180,
      "ĠLit": 4181,
      "Ġplant": 4182,
      "essions": 4183,
      "Ġ52": 4184,
      "Ġscale": 4185,
      "Ġoffensive": 4186,
      "Ġsport": 4187,
      "Ġprec": 4188,
      "Ġinches": 4189,
      "Ġ1986": 4190,
      "Ġexpressed": 4191,
      "Ġconcent": 4192,
      "Ġrights": 4193,
      "Ġnortheast": 4194,
      "Ġaffected": 4195,
      "ĠTownsend": 4196,
      "ĠBraathens": 4197,
      "Ġrough": 4198,
      "Ġwords": 4199,
      "road": 4200,
      "Ġhorse": 4201,
      "ĠSir": 4202,
      "estic": 4203,
      "ĠLand": 4204,
      "ĠJim": 4205,
      "Ġ34": 4206,
      "ĠCharl": 4207,
      "Ġ180": 4208,
      "Ġscul": 4209,
      "Ġneigh": 4210,
      "ĠRev": 4211,
      "ĠNews": 4212,
      "Ġshowed": 4213,
      "Ġofficer": 4214,
      "aha": 4215,
      "Äģd": 4216,
      "ceeded": 4217,
      "bury": 4218,
      "uit": 4219,
      "vin": 4220,
      "Ġsout": 4221,
      "Ġwalk": 4222,
      "ushed": 4223,
      "ĠHorse": 4224,
      "ĠRam": 4225,
      "ĠGroup": 4226,
      "Ġsuc": 4227,
      "Ġability": 4228,
      "ĠEngine": 4229,
      "Ġ150": 4230,
      "ledge": 4231,
      "elsh": 4232,
      "Ġcounty": 4233,
      "Ġbattalion": 4234,
      "ĠAdam": 4235,
      "Ġwindow": 4236,
      "Ġcombined": 4237,
      "intin": 4238,
      "ĠMeyerbeer": 4239,
      "anasi": 4240,
      "FA": 4241,
      "Mont": 4242,
      "house": 4243,
      "light": 4244,
      "nh": 4245,
      "Ġspl": 4246,
      "esbit": 4247,
      "Ġpun": 4248,
      "ingu": 4249,
      "room": 4250,
      "Ġrear": 4251,
      "ĠCivil": 4252,
      "ĠDan": 4253,
      "ĠDire": 4254,
      "Ġsust": 4255,
      "Ġtitled": 4256,
      "Ġprogress": 4257,
      "ĠSpain": 4258,
      "Ġcultural": 4259,
      "ĠSecret": 4260,
      "ĠGovernment": 4261,
      "onymous": 4262,
      "ĠLouis": 4263,
      "ĠNicole": 4264,
      "Ġincorpor": 4265,
      "Ġcasualties": 4266,
      "ĠEmpire": 4267,
      "esbitt": 4268,
      "BA": 4269,
      "mun": 4270,
      "Ġsquare": 4271,
      "Ġfruit": 4272,
      "Ġmountain": 4273,
      "ĠTessa": 4274,
      "ĠMal": 4275,
      "ĠManc": 4276,
      "emic": 4277,
      "umber": 4278,
      "Ġthemes": 4279,
      "Ġremark": 4280,
      "Ġproduce": 4281,
      "Ġcontinues": 4282,
      "Ġsays": 4283,
      "Ġearliest": 4284,
      "ironment": 4285,
      "Ġexcav": 4286,
      "ĠWalpole": 4287,
      "Ġmentioned": 4288,
      "ĠAngeles": 4289,
      "Ġancient": 4290,
      "Ġnewspaper": 4291,
      "Ġmurder": 4292,
      "ĠIllino": 4293,
      "aenathus": 4294,
      "Ġrecommend": 4295,
      "Ġfully": 4296,
      "Ġinh": 4297,
      "Ġdyn": 4298,
      "Ġhol": 4299,
      "ĠTy": 4300,
      "omer": 4301,
      "ĠWelsh": 4302,
      "ĠGar": 4303,
      "ĠEr": 4304,
      "Ġchampionship": 4305,
      "ĠKr": 4306,
      "Ġmanufact": 4307,
      "Ġactor": 4308,
      "Ġartists": 4309,
      "Ġdistinct": 4310,
      "ĠColumb": 4311,
      "pedo": 4312,
      "Ġresulting": 4313,
      "Ġ1920": 4314,
      "arnia": 4315,
      "Ġauthorities": 4316,
      "Ġinfluenced": 4317,
      "Ġflooding": 4318,
      "ĠCaptain": 4319,
      "ĠOlympic": 4320,
      "Ġcerem": 4321,
      "Ġadopted": 4322,
      "Ġdisease": 4323,
      "bird": 4324,
      "enant": 4325,
      "Ġmission": 4326,
      "utions": 4327,
      "ĠDem": 4328,
      "ĠCommun": 4329,
      "Ġreports": 4330,
      "Ġbasis": 4331,
      "ĠPerÃ³n": 4332,
      "Ġrepresented": 4333,
      "while": 4334,
      "Ġadvantage": 4335,
      "nown": 4336,
      "Ġtoward": 4337,
      "Ġrepe": 4338,
      "ĠTintin": 4339,
      "ĠBook": 4340,
      "Ġalone": 4341,
      "ĠLi": 4342,
      "Ġcoming": 4343,
      "ovic": 4344,
      "ogad": 4345,
      "ĠYoung": 4346,
      "Ġassault": 4347,
      "Ġapparent": 4348,
      "Ġdefense": 4349,
      "ocks": 4350,
      "Ġqual": 4351,
      "Ġgrass": 4352,
      "ĠConf": 4353,
      "helm": 4354,
      "Ġletters": 4355,
      "Ġtower": 4356,
      "underbird": 4357,
      "Ġtournament": 4358,
      "ĠManchester": 4359,
      "lin": 4360,
      "uff": 4361,
      "Ġsides": 4362,
      "orus": 4363,
      "ications": 4364,
      "Ġhar": 4365,
      "Ġreign": 4366,
      "Ġreact": 4367,
      "ĠSal": 4368,
      "imb": 4369,
      "ĠBol": 4370,
      "oses": 4371,
      "Ġexhib": 4372,
      "Ġkakapo": 4373,
      "Ġarmed": 4374,
      "Ġrelatively": 4375,
      "ĠArg": 4376,
      "Ġfounded": 4377,
      "Ġbridge": 4378,
      "Ġalongside": 4379,
      "Ġoccasion": 4380,
      "Ġnorthwest": 4381,
      "ashington": 4382,
      "Ġencour": 4383,
      "Ġwithdraw": 4384,
      "Ġtorpedo": 4385,
      "ev": 4386,
      "mir": 4387,
      "nds": 4388,
      "Ġlosing": 4389,
      "Ġnest": 4390,
      "Ġnarrow": 4391,
      "ĠRad": 4392,
      "Ġattended": 4393,
      "ĠFinkelstein": 4394,
      "ĠWashington": 4395,
      "ĠGreen": 4396,
      "ĠOcean": 4397,
      "Ġyellow": 4398,
      "Ġcontain": 4399,
      "Ġworkers": 4400,
      "Ġmechan": 4401,
      "Ġsubs": 4402,
      "Ġdirection": 4403,
      "Ġ1988": 4404,
      "Ġtermin": 4405,
      "Ġofficially": 4406,
      "Ġtried": 4407,
      "Ġorganized": 4408,
      "ograph": 4409,
      "Ġcapture": 4410,
      "Ġlegal": 4411,
      "Ġindividuals": 4412,
      "Ġillust": 4413,
      "Ġtransferred": 4414,
      "ĠLittle": 4415,
      "maha": 4416,
      "Ġcadmium": 4417,
      "Ġfa": 4418,
      "Ġmess": 4419,
      "Ġmile": 4420,
      "ĠCast": 4421,
      "ĠBurn": 4422,
      "ĠHome": 4423,
      "osen": 4424,
      "Ġproved": 4425,
      "abama": 4426,
      "eller": 4427,
      "ogue": 4428,
      "Ġperman": 4429,
      "ĠThrough": 4430,
      "ension": 4431,
      "Ġacting": 4432,
      "Ġeffort": 4433,
      "Ġedition": 4434,
      "Ġrequire": 4435,
      "Ġofficials": 4436,
      "ĠRecords": 4437,
      "Ġmeasure": 4438,
      "Ġphysical": 4439,
      "Ġsurrounding": 4440,
      "Ġdedicated": 4441,
      "AA": 4442,
      "right": 4443,
      "Ġcandid": 4444,
      "ĠTurn": 4445,
      "Ġthir": 4446,
      "ĠAv": 4447,
      "Ġlives": 4448,
      "Ġeye": 4449,
      "Ġstarl": 4450,
      "usion": 4451,
      "ĠPost": 4452,
      "ĠDou": 4453,
      "ĠWay": 4454,
      "Ġrang": 4455,
      "ricult": 4456,
      "Ġenergy": 4457,
      "Ġprin": 4458,
      "Ġdoing": 4459,
      "prise": 4460,
      "Ġemph": 4461,
      "ĠZhou": 4462,
      "Ġedge": 4463,
      "Ġextr": 4464,
      "Ġcouple": 4465,
      "ĠEva": 4466,
      "Ġrainfall": 4467,
      "Ġconflict": 4468,
      "ien": 4469,
      "wen": 4470,
      "adel": 4471,
      "imore": 4472,
      "ĠFred": 4473,
      "ĠFey": 4474,
      "ĠNesbitt": 4475,
      "ĠJos": 4476,
      "ishu": 4477,
      "Ġprepar": 4478,
      "Ġfollows": 4479,
      "Ġdesignated": 4480,
      "Ġshortly": 4481,
      "Ġpattern": 4482,
      "Ġdivided": 4483,
      "ĠOdaenathus": 4484,
      "Ġintensity": 4485,
      "Ġpossibly": 4486,
      "Ġfinancial": 4487,
      "ĠMiddle": 4488,
      "ogadishu": 4489,
      "ech": 4490,
      "mit": 4491,
      "mond": 4492,
      "rane": 4493,
      "Ġir": 4494,
      "Ġfaced": 4495,
      "Ġpaid": 4496,
      "ĠTod": 4497,
      "ĠSpec": 4498,
      "ading": 4499,
      "ĠMajor": 4500,
      "ols": 4501,
      "ĠOmaha": 4502,
      "Ġvo": 4503,
      "Ġven": 4504,
      "Ġshape": 4505,
      "Ġyour": 4506,
      "Ġyoun": 4507,
      "Ġ49": 4508,
      "Ġimages": 4509,
      "Ġ65": 4510,
      "Ġsimply": 4511,
      "Ġwinter": 4512,
      "Ġolder": 4513,
      "Ġsociety": 4514,
      "Ġsources": 4515,
      "Ġdetermined": 4516,
      "Ġmaximum": 4517,
      "Le": 4518,
      "Ġaid": 4519,
      "Ġple": 4520,
      "Ġhun": 4521,
      "ĠSch": 4522,
      "Ġonto": 4523,
      "Ġstep": 4524,
      "ĠFant": 4525,
      "ĠLord": 4526,
      "Ġrat": 4527,
      "Ġraid": 4528,
      "Ġcomedy": 4529,
      "Ġchief": 4530,
      "Ġplaces": 4531,
      "orses": 4532,
      "ugby": 4533,
      "Ġalbums": 4534,
      "Ġ1964": 4535,
      "Ġbroken": 4536,
      "Ġportion": 4537,
      "Ġfunction": 4538,
      "ĠAssembly": 4539,
      "Ġkept": 4540,
      "Ġpiece": 4541,
      "Ġdissip": 4542,
      "Ġpotential": 4543,
      "Ġjournal": 4544,
      "uzz": 4545,
      "Ġborder": 4546,
      "ĠIllinois": 4547,
      "Ġemphas": 4548,
      "rid": 4549,
      "Ġsac": 4550,
      "ental": 4551,
      "ĠSR": 4552,
      "ada": 4553,
      "igan": 4554,
      "use": 4555,
      "ĠJup": 4556,
      "Ġunivers": 4557,
      "Ġadvert": 4558,
      "Ġcharge": 4559,
      "ĠDef": 4560,
      "Ġmovie": 4561,
      "ĠColon": 4562,
      "ĠAdd": 4563,
      "Ġprotect": 4564,
      "Ġargued": 4565,
      "ĠCeres": 4566,
      "ex": 4567,
      "Ġwild": 4568,
      "Ġcities": 4569,
      "Ġfeder": 4570,
      "Ġfolk": 4571,
      "Ġmind": 4572,
      "Ġthr": 4573,
      "Ġgrew": 4574,
      "ĠFleet": 4575,
      "Ġheart": 4576,
      "oper": 4577,
      "ĠKent": 4578,
      "Ġcontent": 4579,
      "Ġcolor": 4580,
      "Ġsuppl": 4581,
      "Ġsyn": 4582,
      "Ġdepth": 4583,
      "ĠClark": 4584,
      "ĠTrans": 4585,
      "ĠAndrew": 4586,
      "Ġsuggests": 4587,
      "Ġauthority": 4588,
      "Ġbehav": 4589,
      "Ġsites": 4590,
      "Ġprojects": 4591,
      "Ġmanagement": 4592,
      "Station": 4593,
      "ihanna": 4594,
      "Ġdomestic": 4595,
      "With": 4596,
      "Ġwor": 4597,
      "Ġwave": 4598,
      "edar": 4599,
      "atops": 4600,
      "ani": 4601,
      "Ġpaint": 4602,
      "Ġdut": 4603,
      "lection": 4604,
      "iled": 4605,
      "acement": 4606,
      "Ġgained": 4607,
      "ĠBowl": 4608,
      "ĠHal": 4609,
      "ĠRh": 4610,
      "Ġscience": 4611,
      "Ġweak": 4612,
      "Ġ64": 4613,
      "ĠSever": 4614,
      "Ġprison": 4615,
      "Ġmuseum": 4616,
      "Ġbelong": 4617,
      "ĠIndepend": 4618,
      "Ġdepart": 4619,
      "ĠCommission": 4620,
      "Ġlegisl": 4621,
      "Ġcausing": 4622,
      "Ġtwice": 4623,
      "Ġcriticized": 4624,
      "Ġstructures": 4625,
      "Ġletter": 4626,
      "ĠPlayStation": 4627,
      "ĠValley": 4628,
      "ĠApple": 4629,
      "Ġtarget": 4630,
      "Ġultimately": 4631,
      "Ġschedul": 4632,
      "Ġentrance": 4633,
      "Ġroyal": 4634,
      "Ġsculpt": 4635,
      "ĠArgent": 4636,
      "je": 4637,
      "kare": 4638,
      "edkare": 4639,
      "ening": 4640,
      "ented": 4641,
      "ĠFer": 4642,
      "ĠDist": 4643,
      "ĠNC": 4644,
      "ĠGreek": 4645,
      "Ġvess": 4646,
      "Ġshare": 4647,
      "Ġunk": 4648,
      "Ġcontaining": 4649,
      "ĠAlabama": 4650,
      "Ġneut": 4651,
      "Ġformation": 4652,
      "Ġextra": 4653,
      "ĠWeek": 4654,
      "Ġdebuted": 4655,
      "Ġdoub": 4656,
      "ĠDuMont": 4657,
      "Ġhomes": 4658,
      "Ġwebsite": 4659,
      "ĠJupiter": 4660,
      "wide": 4661,
      "Ġhospital": 4662,
      "ĠCra": 4663,
      "ĠCarl": 4664,
      "Ġdeploy": 4665,
      "ĠOf": 4666,
      "Ġchosen": 4667,
      "Ġkg": 4668,
      "asty": 4669,
      "claim": 4670,
      "Ġroll": 4671,
      "Ġagg": 4672,
      "Ġdefence": 4673,
      "Ġdefensive": 4674,
      "Ġ1947": 4675,
      "Ġartic": 4676,
      "Ġresults": 4677,
      "Ġforeign": 4678,
      "ĠEdward": 4679,
      "ĠPalest": 4680,
      "Ġopin": 4681,
      "Ġlabel": 4682,
      "VD": 4683,
      "Ġcore": 4684,
      "Ġfit": 4685,
      "Ġinch": 4686,
      "Ġmouth": 4687,
      "Ġmaster": 4688,
      "roll": 4689,
      "ĠSar": 4690,
      "ĠSarnia": 4691,
      "ĠChe": 4692,
      "ĠCons": 4693,
      "ĠBet": 4694,
      "ĠDVD": 4695,
      "umes": 4696,
      "resh": 4697,
      "acks": 4698,
      "ĠVan": 4699,
      "ĠThunderbird": 4700,
      "Ġsecurity": 4701,
      "Ġbrigade": 4702,
      "ĠConstant": 4703,
      "Ġprominent": 4704,
      "Ġbattles": 4705,
      "Ġstanding": 4706,
      "Ġreference": 4707,
      "Ġgrowing": 4708,
      "Ġanimal": 4709,
      "Ġburied": 4710,
      "ĠVaranasi": 4711,
      "Ġgranted": 4712,
      "Ġabandoned": 4713,
      "Ġdismiss": 4714,
      "Ġrejected": 4715,
      "Ġconsecutive": 4716,
      "ML": 4717,
      "uous": 4718,
      "inary": 4719,
      "ĠSen": 4720,
      "ĠRihanna": 4721,
      "ĠFour": 4722,
      "ĠNight": 4723,
      "ĠLar": 4724,
      "ĠVen": 4725,
      "Ġfeed": 4726,
      "Ġcolony": 4727,
      "Ġtherefore": 4728,
      "Ġdescript": 4729,
      "Ġ1941": 4730,
      "Ġvisited": 4731,
      "Ġorganization": 4732,
      "Ġclaims": 4733,
      "Ġtemple": 4734,
      "Ġorders": 4735,
      "Ġcells": 4736,
      "white": 4737,
      "Ġrisk": 4738,
      "ĠBaltimore": 4739,
      "ĠSeveral": 4740,
      "met": 4741,
      "Ġrom": 4742,
      "nding": 4743,
      "Ġmel": 4744,
      "stone": 4745,
      "ĠMax": 4746,
      "ĠHib": 4747,
      "Ġseek": 4748,
      "ĠLike": 4749,
      "ĠJourn": 4750,
      "ĠEastern": 4751,
      "ĠKore": 4752,
      "iana": 4753,
      "Ġjump": 4754,
      "Ġspot": 4755,
      "Ġcolour": 4756,
      "Ġregions": 4757,
      "Ġseconds": 4758,
      "phia": 4759,
      "Ġsingles": 4760,
      "Ġstudent": 4761,
      "Ġminer": 4762,
      "Ġbroke": 4763,
      "ĠCont": 4764,
      "Ġfrag": 4765,
      "ĠAirport": 4766,
      "Ġcondition": 4767,
      "Ġindependent": 4768,
      "Ġwounded": 4769,
      "adelphia": 4770,
      "mission": 4771,
      "Ġahead": 4772,
      "Ġfix": 4773,
      "isters": 4774,
      "Ġreaching": 4775,
      "ĠTri": 4776,
      "ĠBre": 4777,
      "ĠBig": 4778,
      "ĠLis": 4779,
      "ĠLew": 4780,
      "ĠInstitute": 4781,
      "Ġintellig": 4782,
      "Ġadj": 4783,
      "Ġenemy": 4784,
      "Ġremix": 4785,
      "Ġenter": 4786,
      "Ġ1987": 4787,
      "ancy": 4788,
      "Ġadvent": 4789,
      "Ġcollect": 4790,
      "Ġplanet": 4791,
      "Ġsolo": 4792,
      "Ġcases": 4793,
      "Ġidentified": 4794,
      "Ġcollabor": 4795,
      "Ġseems": 4796,
      "Ġnominated": 4797,
      "ĠHelms": 4798,
      "ĠHistor": 4799,
      "Ġtemperature": 4800,
      "Ġequipment": 4801,
      "Ġmoment": 4802,
      "ĠForest": 4803,
      "ĠJoseph": 4804,
      "When": 4805,
      "Ġaired": 4806,
      "ora": 4807,
      "Ġcert": 4808,
      "Ġbott": 4809,
      "ĠTru": 4810,
      "ĠSAF": 4811,
      "ĠCam": 4812,
      "ims": 4813,
      "Ġconver": 4814,
      "ĠDest": 4815,
      "Ġheight": 4816,
      "ĠGall": 4817,
      "Ġunique": 4818,
      "Ġ53": 4819,
      "Ġnewly": 4820,
      "ĠAnn": 4821,
      "Ġelement": 4822,
      "ĠAtt": 4823,
      "Ġ120": 4824,
      "Ġ1989": 4825,
      "Ġreturning": 4826,
      "Ġsupporting": 4827,
      "Ġcampus": 4828,
      "Ġversions": 4829,
      "Ġopposed": 4830,
      "Ġproblem": 4831,
      "ĠWilhelm": 4832,
      "ĠSAFE": 4833,
      "Ġtur": 4834,
      "rete": 4835,
      "Ġwa": 4836,
      "Ġfle": 4837,
      "Ġfear": 4838,
      "Ġfired": 4839,
      "Ġmales": 4840,
      "Ġdress": 4841,
      "iles": 4842,
      "ĠMass": 4843,
      "ĠBBC": 4844,
      "ĠGood": 4845,
      "ocated": 4846,
      "astic": 4847,
      "ĠChap": 4848,
      "Ġteacher": 4849,
      "Ġ1984": 4850,
      "Ġ1985": 4851,
      "Ġ1972": 4852,
      "Ġoperated": 4853,
      "Ġlooking": 4854,
      "Ġknowledge": 4855,
      "Ġincreasingly": 4856,
      "Ġconnect": 4857,
      "ĠScottish": 4858,
      "Ġunknown": 4859,
      "bon": 4860,
      "iate": 4861,
      "Ġtun": 4862,
      "Ġtheory": 4863,
      "Ġcouncil": 4864,
      "asc": 4865,
      "asters": 4866,
      "ĠMogadishu": 4867,
      "ĠBir": 4868,
      "igg": 4869,
      "ĠHu": 4870,
      "ety": 4871,
      "ĠPop": 4872,
      "Ġhere": 4873,
      "ĠLo": 4874,
      "Ġshr": 4875,
      "Ġcompr": 4876,
      "Ġweight": 4877,
      "Ġwrites": 4878,
      "Ġinterp": 4879,
      "Ġdefin": 4880,
      "ĠIndust": 4881,
      "Ġbelieve": 4882,
      "Ġexplained": 4883,
      "Ġcommonly": 4884,
      "Ġideas": 4885,
      "Ġburns": 4886,
      "ĠCardiff": 4887,
      "Ġbreeding": 4888,
      "Ġsettlement": 4889,
      "Ġconfirmed": 4890,
      "cause": 4891,
      "mark": 4892,
      "mosp": 4893,
      "Ġox": 4894,
      "Ġoil": 4895,
      "orter": 4896,
      "Ġcricket": 4897,
      "Ġbud": 4898,
      "ĠMD": 4899,
      "Ġstations": 4900,
      "Ġalter": 4901,
      "Ġatmosp": 4902,
      "ĠFA": 4903,
      "ortal": 4904,
      "ĠChild": 4905,
      "Ġarrest": 4906,
      "Ġherself": 4907,
      "Ġperfect": 4908,
      "Ġ55": 4909,
      "ibr": 4910,
      "Ġconsisted": 4911,
      "Ġsinging": 4912,
      "Ġadvanced": 4913,
      "ĠBecause": 4914,
      "Ġsystems": 4915,
      "Ġhistorian": 4916,
      "Ġfemales": 4917,
      "ĠMichigan": 4918,
      "ĠPhiladelphia": 4919,
      "Ġproperty": 4920,
      "Ġeconomic": 4921,
      "Ġliterature": 4922,
      "Although": 4923,
      "Ġscholars": 4924,
      "Ġcontrolled": 4925,
      "Ġenvironment": 4926,
      "Ġmolec": 4927,
      "By": 4928,
      "yes": 4929,
      "Ġfox": 4930,
      "anwhile": 4931,
      "alions": 4932,
      "Ġparliament": 4933,
      "Ġmount": 4934,
      "icts": 4935,
      "Ġhappen": 4936,
      "ĠMounted": 4937,
      "Ġdeities": 4938,
      "odon": 4939,
      "Ġmaintained": 4940,
      "Ġ1944": 4941,
      "Ġlands": 4942,
      "ĠCommon": 4943,
      "Ġphil": 4944,
      "Ġgrowth": 4945,
      "appy": 4946,
      "ĠSwed": 4947,
      "Ġdevot": 4948,
      "Ġstrengt": 4949,
      "ĠEgyptian": 4950,
      "Ġpieces": 4951,
      "ĠMcCall": 4952,
      "Ġfailure": 4953,
      "ĠOperation": 4954,
      "Ġdropped": 4955,
      "Ġanalysis": 4956,
      "Ġkilomet": 4957,
      "Ġawards": 4958,
      "Ġsens": 4959,
      "Ġfast": 4960,
      "isation": 4961,
      "Ġpan": 4962,
      "ĠSil": 4963,
      "ĠSum": 4964,
      "ĠPrem": 4965,
      "ĠOx": 4966,
      "istry": 4967,
      "Ġcompar": 4968,
      "Ġfilmed": 4969,
      "Ġelev": 4970,
      "airs": 4971,
      "Ġcreation": 4972,
      "Ġlandfall": 4973,
      "Ġkilling": 4974,
      "Ġfreeway": 4975,
      "ĠWilliams": 4976,
      "Ġpitched": 4977,
      "ĠMorr": 4978,
      "Ġstrike": 4979,
      "Ġhonor": 4980,
      "Ġflying": 4981,
      "Ġinjury": 4982,
      "ĠEntertain": 4983,
      "atch": 4984,
      "aling": 4985,
      "Ġmounted": 4986,
      "Ġhorses": 4987,
      "ads": 4988,
      "ĠBon": 4989,
      "ĠBas": 4990,
      "ĠHorn": 4991,
      "ĠRA": 4992,
      "Ġconne": 4993,
      "agan": 4994,
      "ighth": 4995,
      "Ġextend": 4996,
      "Ġtry": 4997,
      "ieval": 4998,
      "Ġresemb": 4999,
      "ĠThough": 5000,
      "Ġboats": 5001,
      "ĠItaly": 5002,
      "Ġserve": 5003,
      "Ġspeak": 5004,
      "Ġ600": 5005,
      "ĠReview": 5006,
      "hips": 5007,
      "Ġretired": 5008,
      "Ġactress": 5009,
      "Ġexped": 5010,
      "Ġbelief": 5011,
      "Ġhumans": 5012,
      "ĠOrigin": 5013,
      "Ġpromoted": 5014,
      "Ġvalue": 5015,
      "urban": 5016,
      "Ġrapidly": 5017,
      "Ġbattery": 5018,
      "Ġweapons": 5019,
      "lers": 5020,
      "mes": 5021,
      "Ġselling": 5022,
      "Ġbid": 5023,
      "Ġpict": 5024,
      "stream": 5025,
      "amic": 5026,
      "Ġstra": 5027,
      "ĠPet": 5028,
      "ĠField": 5029,
      "ĠDutch": 5030,
      "ĠNorm": 5031,
      "ĠJur": 5032,
      "Ġ43": 5033,
      "ĠAlbum": 5034,
      "Ġimag": 5035,
      "Ġweather": 5036,
      "ĠAmericans": 5037,
      "Ġinvasion": 5038,
      "Ġpasses": 5039,
      "Ġpassing": 5040,
      "Ġpublication": 5041,
      "Ġsignificantly": 5042,
      "Ġcougar": 5043,
      "Ġreligion": 5044,
      "ĠKeats": 5045,
      "Ġrecognized": 5046,
      "ĠHamels": 5047,
      "Ġcreating": 5048,
      "ĠCongress": 5049,
      "Ġconnected": 5050,
      "Ġsemi": 5051,
      "ĠCroatia": 5052,
      "Ġpremi": 5053,
      "ĠDjedkare": 5054,
      "Ġprepared": 5055,
      "Ġmultiple": 5056,
      "Ġfederal": 5057,
      "ĠApplewhite": 5058,
      "Ġstraight": 5059,
      "Wh": 5060,
      "eer": 5061,
      "haps": 5062,
      "more": 5063,
      "pass": 5064,
      "upp": 5065,
      "Ġast": 5066,
      "render": 5067,
      "Ġsought": 5068,
      "itch": 5069,
      "Ġbats": 5070,
      "asure": 5071,
      "oured": 5072,
      "oty": 5073,
      "ĠFinal": 5074,
      "Ġchose": 5075,
      "ĠInnis": 5076,
      "ĠUs": 5077,
      "ordon": 5078,
      "There": 5079,
      "Ġ56": 5080,
      "ampion": 5081,
      "Ġcolumn": 5082,
      "Ġleader": 5083,
      "Ġfamous": 5084,
      "Ġmatter": 5085,
      "Ġrestaur": 5086,
      "Ġdeliver": 5087,
      "ĠMinister": 5088,
      "Ġpopularity": 5089,
      "arrison": 5090,
      "Ġprotest": 5091,
      "Ġproducers": 5092,
      "Ġvolume": 5093,
      "Ġwalls": 5094,
      "Ġregarded": 5095,
      "Ġseventh": 5096,
      "Ġaspects": 5097,
      "Ġnecessary": 5098,
      "Ġscheduled": 5099,
      "RA": 5100,
      "gn": 5101,
      "uge": 5102,
      "uild": 5103,
      "Ġsand": 5104,
      "Ġcust": 5105,
      "ano": 5106,
      "Ġdata": 5107,
      "Ġreaction": 5108,
      "Ġlaid": 5109,
      "Ġconvers": 5110,
      "ĠFurther": 5111,
      "ersey": 5112,
      "Ġrise": 5113,
      "ella": 5114,
      "Ġ46": 5115,
      "Ġagricult": 5116,
      "Ġspect": 5117,
      "ĠArm": 5118,
      "icks": 5119,
      "amese": 5120,
      "Ġflank": 5121,
      "Ġstarts": 5122,
      "Ġlanding": 5123,
      "Ġinscript": 5124,
      "Ġguest": 5125,
      "heless": 5126,
      "Ġpromotion": 5127,
      "Ġaccompan": 5128,
      "ĠVietnamese": 5129,
      "Ġnucleus": 5130,
      "Ġsustained": 5131,
      "Following": 5132,
      "sw": 5133,
      "Ġtim": 5134,
      "Ġtact": 5135,
      "Ġfought": 5136,
      "isy": 5137,
      "Ġdated": 5138,
      "ĠCamb": 5139,
      "Ġbeaut": 5140,
      "ĠBost": 5141,
      "ĠHaven": 5142,
      "ulate": 5143,
      "ĠGulf": 5144,
      "Ġrival": 5145,
      "ĠEven": 5146,
      "ieut": 5147,
      "ĠVideo": 5148,
      "izing": 5149,
      "ception": 5150,
      "ĠGuard": 5151,
      "ĠAndy": 5152,
      "ographer": 5153,
      "Ġfung": 5154,
      "Ġdelay": 5155,
      "Ġcastle": 5156,
      "Ġstrik": 5157,
      "Ġcurrently": 5158,
      "Ġemployed": 5159,
      "clusion": 5160,
      "Ġfamilies": 5161,
      "ĠCambod": 5162,
      "An": 5163,
      "ees": 5164,
      "heastern": 5165,
      "inity": 5166,
      "Ġouter": 5167,
      "ĠAp": 5168,
      "ĠMike": 5169,
      "ĠHart": 5170,
      "ĠNever": 5171,
      "ĠLine": 5172,
      "ĠJon": 5173,
      "Ġrating": 5174,
      "Ġvirt": 5175,
      "appe": 5176,
      "Ġtrain": 5177,
      "Ġcontained": 5178,
      "Ġarms": 5179,
      "Ġ41": 5180,
      "ansion": 5181,
      "Ġ700": 5182,
      "ĠOnce": 5183,
      "Ġunderground": 5184,
      "Ġends": 5185,
      "Ġsupply": 5186,
      "ĠConference": 5187,
      "Ġ1939": 5188,
      "Ġdrive": 5189,
      "Ġtrial": 5190,
      "Ġphase": 5191,
      "ĠSteve": 5192,
      "Ġfacilities": 5193,
      "ĠSlam": 5194,
      "Ġfrequently": 5195,
      "Ġbudget": 5196,
      "Ġphilos": 5197,
      "rain": 5198,
      "Ġtree": 5199,
      "Ġsave": 5200,
      "itable": 5201,
      "Ġfict": 5202,
      "Ġbank": 5203,
      "Ġdrop": 5204,
      "Ġreform": 5205,
      "standing": 5206,
      "ĠSat": 5207,
      "ĠMatt": 5208,
      "iring": 5209,
      "ĠBan": 5210,
      "ĠHMS": 5211,
      "ĠFestival": 5212,
      "ĠNaz": 5213,
      "agement": 5214,
      "ĠGirl": 5215,
      "ĠLock": 5216,
      "ĠStan": 5217,
      "Ġunus": 5218,
      "Ġcontact": 5219,
      "Ġcontributed": 5220,
      "Ġspring": 5221,
      "ĠOnly": 5222,
      "Ġactors": 5223,
      "orney": 5224,
      "Ġ1981": 5225,
      "Ġ1942": 5226,
      "insula": 5227,
      "Ġallows": 5228,
      "Ġreflect": 5229,
      "Ġcollected": 5230,
      "Ġfinds": 5231,
      "Ġpropos": 5232,
      "Ġnegative": 5233,
      "Ġexecutive": 5234,
      "Ġsilver": 5235,
      "Ġclean": 5236,
      "Ġdegree": 5237,
      "Ġbottom": 5238,
      "lines": 5239,
      "rong": 5240,
      "yond": 5241,
      "onent": 5242,
      "Ġsen": 5243,
      "Ġfresh": 5244,
      "ĠAthlet": 5245,
      "Ġbeyond": 5246,
      "olved": 5247,
      "ĠWrit": 5248,
      "ĠNBA": 5249,
      "aved": 5250,
      "ĠEnd": 5251,
      "illo": 5252,
      "Ġshaped": 5253,
      "Ġcomputer": 5254,
      "angers": 5255,
      "Ġopera": 5256,
      "Ġ1918": 5257,
      "ĠClass": 5258,
      "Ġeffective": 5259,
      "ĠAbu": 5260,
      "Ġentirely": 5261,
      "Ġanimals": 5262,
      "Ġimproved": 5263,
      "Ġsubsequent": 5264,
      "ĠCoast": 5265,
      "ĠStudios": 5266,
      "ĠRevolution": 5267,
      "ĠCrazy": 5268,
      "ieutenant": 5269,
      "According": 5270,
      "Ġcited": 5271,
      "Ġbow": 5272,
      "aria": 5273,
      "alle": 5274,
      "Ġmob": 5275,
      "Ġdraft": 5276,
      "Ġgain": 5277,
      "Ġgives": 5278,
      "thur": 5279,
      "ĠFriend": 5280,
      "ĠGordon": 5281,
      "ĠOp": 5282,
      "Ġnotable": 5283,
      "Ġrecently": 5284,
      "Ġ54": 5285,
      "ansas": 5286,
      "ĠMario": 5287,
      "ropium": 5288,
      "ĠSha": 5289,
      "Ġ1968": 5290,
      "Ġexpress": 5291,
      "Ġsimple": 5292,
      "Ġ130": 5293,
      "ashion": 5294,
      "Ġextensive": 5295,
      "ĠMuslim": 5296,
      "Ġmedical": 5297,
      "Ġfinding": 5298,
      "ushing": 5299,
      "Ġgradually": 5300,
      "ĠJeff": 5301,
      "ĠAddition": 5302,
      "Ġkilometres": 5303,
      "ĠOxford": 5304,
      "ĠBoston": 5305,
      "cy": 5306,
      "kin": 5307,
      "eds": 5308,
      "Ġegg": 5309,
      "iments": 5310,
      "Ġstages": 5311,
      "ĠPen": 5312,
      "ĠPublic": 5313,
      "ĠRog": 5314,
      "ĠGard": 5315,
      "ĠUl": 5316,
      "Ġ57": 5317,
      "Ġfinals": 5318,
      "ĠAnth": 5319,
      "ocked": 5320,
      "Ġsevere": 5321,
      "Ġ179": 5322,
      "Ġ1975": 5323,
      "Ġexpanded": 5324,
      "azz": 5325,
      "Ġserving": 5326,
      "Ġantimony": 5327,
      "Ġprograms": 5328,
      "ĠEntertainment": 5329,
      "Ch": 5330,
      "che": 5331,
      "cel": 5332,
      "ki": 5333,
      "oz": 5334,
      "Ġtail": 5335,
      "ero": 5336,
      "Ġcamer": 5337,
      "ishes": 5338,
      "Ġbit": 5339,
      "Ġdates": 5340,
      "Ġham": 5341,
      "stead": 5342,
      "unte": 5343,
      "ĠRail": 5344,
      "Ġitems": 5345,
      "ĠDen": 5346,
      "ĠJain": 5347,
      "Ġcomes": 5348,
      "Ġboat": 5349,
      "weet": 5350,
      "Ġcenturies": 5351,
      "oys": 5352,
      "Ġ800": 5353,
      "Ġsecondary": 5354,
      "Ġmusc": 5355,
      "ĠShort": 5356,
      "Ġ1969": 5357,
      "Ġoccas": 5358,
      "Ġcorre": 5359,
      "ĠMagazine": 5360,
      "ĠEvita": 5361,
      "ĠSystem": 5362,
      "Ġoccupied": 5363,
      "ĠMartin": 5364,
      "ĠDemocr": 5365,
      "iro": 5366,
      "iations": 5367,
      "Ġwed": 5368,
      "Ġmo": 5369,
      "Ġmig": 5370,
      "icc": 5371,
      "Ġdaily": 5372,
      "Ġnaval": 5373,
      "ura": 5374,
      "urches": 5375,
      "ĠId": 5376,
      "unicip": 5377,
      "ĠFam": 5378,
      "ĠDer": 5379,
      "ĠDomin": 5380,
      "ĠLes": 5381,
      "ĠEach": 5382,
      "Ġchair": 5383,
      "berg": 5384,
      "udd": 5385,
      "sea": 5386,
      "Ġfloor": 5387,
      "Ġsole": 5388,
      "Ġmush": 5389,
      "Ġdecades": 5390,
      "Ġ1965": 5391,
      "Ġ1974": 5392,
      "ancing": 5393,
      "Ġdeaths": 5394,
      "Ġcriticism": 5395,
      "ĠBarrow": 5396,
      "Ġfarm": 5397,
      "Ġsuccessfully": 5398,
      "Ġfavour": 5399,
      "Ġlosses": 5400,
      "Ã¡nh": 5401,
      "Ġcomposition": 5402,
      "Ġslowly": 5403,
      "Ġindependence": 5404,
      "ĠHistory": 5405,
      "Ġcommissioned": 5406,
      "Ġexperienced": 5407,
      "Äģda": 5408,
      "ĠLewis": 5409,
      "Ġfictional": 5410,
      "Ġtrou": 5411,
      "inem": 5412,
      "Ġod": 5413,
      "Ġdial": 5414,
      "ĠAvenue": 5415,
      "ĠCold": 5416,
      "ĠChel": 5417,
      "ĠRome": 5418,
      "uli": 5419,
      "ĠObs": 5420,
      "ĠStone": 5421,
      "Ġrow": 5422,
      "rence": 5423,
      "Ġreception": 5424,
      "anny": 5425,
      "Ġdidn": 5426,
      "ĠJuan": 5427,
      "Ġvisual": 5428,
      "Ġsentence": 5429,
      "Ġengaged": 5430,
      "Ġmyth": 5431,
      "ĠSongs": 5432,
      "Ġtreatment": 5433,
      "ĠMacLe": 5434,
      "ĠTorres": 5435,
      "ĠTurk": 5436,
      "Ġpurchased": 5437,
      "Ġpolicy": 5438,
      "ĠJamal": 5439,
      "Ġfaith": 5440,
      "ĠTurner": 5441,
      "ĠThunderbirds": 5442,
      "He": 5443,
      "TC": 5444,
      "hat": 5445,
      "yson": 5446,
      "Ġsquad": 5447,
      "Ġbass": 5448,
      "iced": 5449,
      "ĠSund": 5450,
      "lyss": 5451,
      "lywood": 5452,
      "unction": 5453,
      "ĠFox": 5454,
      "ĠDue": 5455,
      "ĠNathan": 5456,
      "ĠGi": 5457,
      "ĠLl": 5458,
      "ĠJes": 5459,
      "Ġchorus": 5460,
      "ĠKir": 5461,
      "Ġunp": 5462,
      "Ġadapt": 5463,
      "Ġsports": 5464,
      "Ġprefer": 5465,
      "Ġcoal": 5466,
      "Ġcool": 5467,
      "Ġ164": 5468,
      "ĠBridge": 5469,
      "ĠScience": 5470,
      "Ġ1946": 5471,
      "Ġconcrete": 5472,
      "Ġsouthwest": 5473,
      "Ġworldwide": 5474,
      "Ġcaptain": 5475,
      "ĠPeople": 5476,
      "Ġdeclined": 5477,
      "Ġprotagon": 5478,
      "Ġbegun": 5479,
      "Ġreasons": 5480,
      "Ġnegot": 5481,
      "ĠCommander": 5482,
      "borough": 5483,
      "ategory": 5484,
      "Ġbriefly": 5485,
      "ĠRussian": 5486,
      "Ġattract": 5487,
      "Ġchalleng": 5488,
      "ĠDistrict": 5489,
      "ĠPremier": 5490,
      "ĠJurc": 5491,
      "bl": 5492,
      "crib": 5493,
      "fort": 5494,
      "Ġfat": 5495,
      "Ġdrawn": 5496,
      "ĠSo": 5497,
      "Ġeas": 5498,
      "aming": 5499,
      "ĠCre": 5500,
      "ĠCole": 5501,
      "Ġbeach": 5502,
      "ĠBart": 5503,
      "ĠNH": 5504,
      "Ġexclus": 5505,
      "Ġnote": 5506,
      "perial": 5507,
      "ublin": 5508,
      "Ġ95": 5509,
      "Ġ96": 5510,
      "Ġflag": 5511,
      "Ġnothing": 5512,
      "Ġincident": 5513,
      "ccessful": 5514,
      "Ġconcer": 5515,
      "Ġorganiz": 5516,
      "Ġimportance": 5517,
      "Ġroads": 5518,
      "Ġescape": 5519,
      "iences": 5520,
      "rang": 5521,
      "Ġ#": 5522,
      "Ġworship": 5523,
      "Ġfur": 5524,
      "Ġhired": 5525,
      "Ġnor": 5526,
      "ĠCub": 5527,
      "ĠMore": 5528,
      "ĠBru": 5529,
      "Ġstreet": 5530,
      "ĠDun": 5531,
      "ĠGreg": 5532,
      "quake": 5533,
      "ĠKn": 5534,
      "ĠKang": 5535,
      "Ġarc": 5536,
      "ĠVill": 5537,
      "ĠHead": 5538,
      "aret": 5539,
      "Ġ61": 5540,
      "Ġ73": 5541,
      "Ġmoves": 5542,
      "Ġfoundation": 5543,
      "Ġdecade": 5544,
      "Ġlongest": 5545,
      "Ġ1966": 5546,
      "Ġ1952": 5547,
      "Ġ1919": 5548,
      "Ġarrival": 5549,
      "ĠProv": 5550,
      "Ġelimin": 5551,
      "Ġhyd": 5552,
      "chers": 5553,
      "Ġbillion": 5554,
      "Ġpossibility": 5555,
      "Ġchapter": 5556,
      "Ġparticipated": 5557,
      "Ġcalc": 5558,
      "Ġfirm": 5559,
      "Ġunsu": 5560,
      "Ġenjoyed": 5561,
      "ĠArea": 5562,
      "ĠTemple": 5563,
      "Ġresponded": 5564,
      "Ġpaintings": 5565,
      "Ġaccompanied": 5566,
      "oen": 5567,
      "Ġtall": 5568,
      "Ġtheat": 5569,
      "Ġwides": 5570,
      "Ġpul": 5571,
      "Ġmist": 5572,
      "Ġlabor": 5573,
      "Ġec": 5574,
      "ĠCrown": 5575,
      "Ġgas": 5576,
      "Ġstret": 5577,
      "ĠDublin": 5578,
      "ĠWork": 5579,
      "Ġheard": 5580,
      "ĠLiber": 5581,
      "apes": 5582,
      "ĠUN": 5583,
      "iance": 5584,
      "ĠChains": 5585,
      "Ġtend": 5586,
      "ĠAlf": 5587,
      "izes": 5588,
      "Ġneck": 5589,
      "Ġ97": 5590,
      "Ġflu": 5591,
      "Ġsetting": 5592,
      "Ġdeveloping": 5593,
      "Ġ177": 5594,
      "Ġowners": 5595,
      "Ġ1936": 5596,
      "Ġguard": 5597,
      "Ġoldest": 5598,
      "Ġglob": 5599,
      "Ġagreement": 5600,
      "ĠKhÃ¡nh": 5601,
      "Ġdollar": 5602,
      "Ġnormal": 5603,
      "Ġplatform": 5604,
      "Ġwitness": 5605,
      "Ġroughly": 5606,
      "Ġsenior": 5607,
      "ĠMacLeod": 5608,
      "lysses": 5609,
      "chest": 5610,
      "iable": 5611,
      "ls": 5612,
      "oes": 5613,
      "pread": 5614,
      "Ġhor": 5615,
      "ĠCD": 5616,
      "Ġgreen": 5617,
      "ayer": 5618,
      "ĠRy": 5619,
      "ĠGA": 5620,
      "ĠEll": 5621,
      "istan": 5622,
      "alls": 5623,
      "Ġchoice": 5624,
      "ĠUlysses": 5625,
      "ĠKa": 5626,
      "Ġremn": 5627,
      "Ġconsists": 5628,
      "Ġvert": 5629,
      "Ġacad": 5630,
      "Ġaccident": 5631,
      "Ġadding": 5632,
      "Ġpopulations": 5633,
      "Ġ1973": 5634,
      "ĠUSA": 5635,
      "Ġlasted": 5636,
      "ĠAdmir": 5637,
      "Ġtrip": 5638,
      "ĠBoard": 5639,
      "ĠProject": 5640,
      "Ġcombination": 5641,
      "Ġtechnology": 5642,
      "Ġexistence": 5643,
      "Ġregarding": 5644,
      "Ġviolence": 5645,
      "ĠGovernor": 5646,
      "Ġpoetry": 5647,
      "Ġdominated": 5648,
      "Ġathletes": 5649,
      "ĠDougl": 5650,
      "For": 5651,
      "iot": 5652,
      "Ġsn": 5653,
      "eda": 5654,
      "Ġeth": 5655,
      "adow": 5656,
      "iday": 5657,
      "ĠBand": 5658,
      "ĠBrian": 5659,
      "ĠBaby": 5660,
      "usal": 5661,
      "Ġisol": 5662,
      "Ġcomic": 5663,
      "antly": 5664,
      "Ġreserv": 5665,
      "Ġspons": 5666,
      "Ġcommittee": 5667,
      "Ġfilming": 5668,
      "Ġacres": 5669,
      "Ġsubmar": 5670,
      "Ġcalls": 5671,
      "Ġperforming": 5672,
      "ĠIsl": 5673,
      "ĠIsab": 5674,
      "Ġcollege": 5675,
      "Ġclubs": 5676,
      "Ġskin": 5677,
      "Ġassociation": 5678,
      "Ġclosely": 5679,
      "Ġresear": 5680,
      "Ġexisting": 5681,
      "Ġapplied": 5682,
      "guan": 5683,
      "Ġweakened": 5684,
      "ĠDaniel": 5685,
      "Ġunsuccessful": 5686,
      "come": 5687,
      "ection": 5688,
      "rum": 5689,
      "vis": 5690,
      "Ġaer": 5691,
      "era": 5692,
      "aton": 5693,
      "isers": 5694,
      "aser": 5695,
      "ĠMov": 5696,
      "ĠMountain": 5697,
      "ĠTheatre": 5698,
      "ĠPre": 5699,
      "Ġaltar": 5700,
      "resp": 5701,
      "ĠInstead": 5702,
      "ĠKey": 5703,
      "Ġperhaps": 5704,
      "Ġoverl": 5705,
      "Ġneither": 5706,
      "Ġ62": 5707,
      "Ġundert": 5708,
      "Ġappeal": 5709,
      "Ġdecre": 5710,
      "Ġcapable": 5711,
      "Ġtransit": 5712,
      "Ġ110": 5713,
      "Ġdistingu": 5714,
      "Ġprovides": 5715,
      "Ġ1914": 5716,
      "Ġbattalions": 5717,
      "Ġserves": 5718,
      "Ġgreatly": 5719,
      "ĠProt": 5720,
      "Ġcompetitions": 5721,
      "Ġpainting": 5722,
      "Ġarchaeological": 5723,
      "Ġlearned": 5724,
      "Ġderived": 5725,
      "Ġtells": 5726,
      "Ġreinforce": 5727,
      "Ġpilot": 5728,
      "Ġpurpose": 5729,
      "Ġadministration": 5730,
      "Ġopportunity": 5731,
      "Ġbenef": 5732,
      "Ġceremony": 5733,
      "Ġoccasionally": 5734,
      "While": 5735,
      "ĠTurkish": 5736,
      "It": 5737,
      "aver": 5738,
      "erc": 5739,
      "Ġsort": 5740,
      "Ġfellow": 5741,
      "Ġbought": 5742,
      "Ġdance": 5743,
      "Ġthing": 5744,
      "ĠSus": 5745,
      "Ġones": 5746,
      "ĠMur": 5747,
      "ĠHy": 5748,
      "ĠFive": 5749,
      "ager": 5750,
      "Ġseat": 5751,
      "ichol": 5752,
      "Ġchurches": 5753,
      "Ġadap": 5754,
      "Ġreconst": 5755,
      "Ġdescend": 5756,
      "ĠAlso": 5757,
      "ibbe": 5758,
      "Ġ85": 5759,
      "Ġsupposed": 5760,
      "Ġsurvey": 5761,
      "pring": 5762,
      "Ġinvited": 5763,
      "Ġreceiving": 5764,
      "Ġ1967": 5765,
      "Ġheaded": 5766,
      "Ġeditor": 5767,
      "ĠCaribbe": 5768,
      "Ġstoryline": 5769,
      "Ġbasket": 5770,
      "ĠPhill": 5771,
      "Ġparalle": 5772,
      "Ġdetails": 5773,
      "Ġtechnique": 5774,
      "Ġsufficient": 5775,
      "Ġencounter": 5776,
      "ĠOde": 5777,
      "Ġinnings": 5778,
      "ĠTennyson": 5779,
      "Ġfilled": 5780,
      "ĠFrancisc": 5781,
      "Ġvehicles": 5782,
      "Ġdissipated": 5783,
      "ĠAnthony": 5784,
      "ĠDouglas": 5785,
      "ĠCaribbean": 5786,
      "uate": 5787,
      "Ġut": 5788,
      "Ġton": 5789,
      "Ġsom": 5790,
      "Ġfashion": 5791,
      "Ġdrew": 5792,
      "omy": 5793,
      "amy": 5794,
      "lying": 5795,
      "ĠMic": 5796,
      "ĠMem": 5797,
      "Ġseg": 5798,
      "ĠERA": 5799,
      "Ġplum": 5800,
      "ĠStew": 5801,
      "pty": 5802,
      "Ġcontrib": 5803,
      "Ġspeaking": 5804,
      "ĠMaria": 5805,
      "Ġinteract": 5806,
      "Ġdoor": 5807,
      "ĠLeon": 5808,
      "Ġgoes": 5809,
      "Ġreceive": 5810,
      "ĠAsia": 5811,
      "Ġ1945": 5812,
      "Ġbranch": 5813,
      "Ġanything": 5814,
      "pective": 5815,
      "Ġclassified": 5816,
      "ographic": 5817,
      "Ġviewed": 5818,
      "Ġtowns": 5819,
      "ĠGeorg": 5820,
      "Ġislands": 5821,
      "ĠAmong": 5822,
      "Ġtypical": 5823,
      "Ġsurvived": 5824,
      "ÃŃa": 5825,
      "Ġmassive": 5826,
      "Ġaccompl": 5827,
      "ĠBraz": 5828,
      "Ġstopped": 5829,
      "Ġdrama": 5830,
      "Ġsymbol": 5831,
      "Ġastron": 5832,
      "Ġwidespread": 5833,
      "hu": 5834,
      "pson": 5835,
      "ruli": 5836,
      "sy": 5837,
      "win": 5838,
      "Ġaim": 5839,
      "Ġsail": 5840,
      "Ġcrop": 5841,
      "arian": 5842,
      "ĠAri": 5843,
      "ĠAge": 5844,
      "ĠBishop": 5845,
      "uting": 5846,
      "Ġwhy": 5847,
      "ĠRet": 5848,
      "ules": 5849,
      "agle": 5850,
      "ĠGab": 5851,
      "Ġring": 5852,
      "opes": 5853,
      "Ġshared": 5854,
      "Ġtruth": 5855,
      "Ġtrying": 5856,
      "usted": 5857,
      "rait": 5858,
      "Ġ59": 5859,
      "Ġ71": 5860,
      "ĠAnonymous": 5861,
      "Ġflights": 5862,
      "Ġassass": 5863,
      "Ġquot": 5864,
      "Ġsynt": 5865,
      "Ġpoly": 5866,
      "Ġ1971": 5867,
      "Ġdepict": 5868,
      "Ġdistrict": 5869,
      "ĠQedar": 5870,
      "Ġprotection": 5871,
      "Ġauthors": 5872,
      "Ġhousehold": 5873,
      "Ġmissing": 5874,
      "Ġmotion": 5875,
      "ĠGolden": 5876,
      "glades": 5877,
      "Ġsettlers": 5878,
      "Ġacquired": 5879,
      "Ġdigital": 5880,
      "Ġsafety": 5881,
      "Ġsoutheast": 5882,
      "Ġrepeated": 5883,
      "ĠToday": 5884,
      "ĠConstantine": 5885,
      "ĠHibari": 5886,
      "Ġconverted": 5887,
      "ibrary": 5888,
      "ĠSummer": 5889,
      "bie": 5890,
      "inn": 5891,
      "inner": 5892,
      "ati": 5893,
      "ala": 5894,
      "Ġha": 5895,
      "entially": 5896,
      "Ġeu": 5897,
      "ĠCy": 5898,
      "ĠBull": 5899,
      "utation": 5900,
      "ĠRod": 5901,
      "ĠJo": 5902,
      "iston": 5903,
      "essed": 5904,
      "ips": 5905,
      "ĠKenn": 5906,
      "Ġroof": 5907,
      "ĠAli": 5908,
      "Ġspacing": 5909,
      "Ġfinish": 5910,
      "Ġevac": 5911,
      "issance": 5912,
      "Ġacid": 5913,
      "Ġsubstant": 5914,
      "cki": 5915,
      "Ġlocations": 5916,
      "Ġ1982": 5917,
      "Ġ160": 5918,
      "Ġ1976": 5919,
      "Ġdepicted": 5920,
      "Ġ1956": 5921,
      "Ġ1913": 5922,
      "Ġ1916": 5923,
      "Ġturns": 5924,
      "Ġexperiment": 5925,
      "Ġplanning": 5926,
      "ĠRomani": 5927,
      "Ġwatched": 5928,
      "Ġholding": 5929,
      "Ġbaseball": 5930,
      "Ġfunding": 5931,
      "Ġfocused": 5932,
      "ĠCardinal": 5933,
      "Ġarranged": 5934,
      "ĠOslo": 5935,
      "Ġsucceeded": 5936,
      "ĠRadio": 5937,
      "Ġpermanent": 5938,
      "ĠFantasy": 5939,
      "Ġopinion": 5940,
      "Ġatmosphere": 5941,
      "Ġwedding": 5942,
      "ĠChelsea": 5943,
      "VN": 5944,
      "eed": 5945,
      "set": 5946,
      "tty": 5947,
      "uan": 5948,
      "Ġi": 5949,
      "Ġign": 5950,
      "Ġopt": 5951,
      "Ġfuel": 5952,
      "Ġbul": 5953,
      "Ġbowl": 5954,
      "Ġindu": 5955,
      "Ġdub": 5956,
      "ĠAML": 5957,
      "acity": 5958,
      "idges": 5959,
      "ĠRol": 5960,
      "ĠFre": 5961,
      "ĠJones": 5962,
      "Ġrif": 5963,
      "ĠOh": 5964,
      "Ġcho": 5965,
      "Ġchance": 5966,
      "Ġchannel": 5967,
      "Ġexact": 5968,
      "Ġlege": 5969,
      "iege": 5970,
      "Ġroutes": 5971,
      "Ġresident": 5972,
      "Ġ72": 5973,
      "Ġknew": 5974,
      "Ġ1943": 5975,
      "Ġ175": 5976,
      "ĠAllied": 5977,
      "Ġiniti": 5978,
      "Ġreality": 5979,
      "ĠBoise": 5980,
      "bridge": 5981,
      "Ġdecline": 5982,
      "Ġcorresp": 5983,
      "idden": 5984,
      "Ġcreator": 5985,
      "Ġpenalty": 5986,
      "Ġearthquake": 5987,
      "Ġcredited": 5988,
      "hetic": 5989,
      "ĠHaiti": 5990,
      "guanodon": 5991,
      "Ġcorrespond": 5992,
      "GN": 5993,
      "ky": 5994,
      "vens": 5995,
      "Ġtied": 5996,
      "indu": 5997,
      "erick": 5998,
      "Ġwins": 5999,
      "Ġinner": 6000,
      "Ġmic": 6001,
      "stances": 6002,
      "ĠMod": 6003,
      "ĠMTV": 6004,
      "ivered": 6005,
      "ĠBond": 6006,
      "ĠRon": 6007,
      "ĠDream": 6008,
      "agre": 6009,
      "ĠGully": 6010,
      "Ġrich": 6011,
      "ĠUr": 6012,
      "ĠStadium": 6013,
      "okes": 6014,
      "Ġpregn": 6015,
      "Ġ94": 6016,
      "Ġ81": 6017,
      "awa": 6018,
      "ĠMarl": 6019,
      "Ġcharter": 6020,
      "Ġassemb": 6021,
      "Ġgrav": 6022,
      "Ġ112": 6023,
      "Ġproviding": 6024,
      "Ġairport": 6025,
      "Ġheads": 6026,
      "ĠMeanwhile": 6027,
      "Ġ250": 6028,
      "Ġways": 6029,
      "Ġexplos": 6030,
      "Ġdelivered": 6031,
      "Ġlaws": 6032,
      "Ġglass": 6033,
      "Ġseparated": 6034,
      "Ġrenamed": 6035,
      "ĠEverglades": 6036,
      "ĠMoz": 6037,
      "ructure": 6038,
      "ĠMaeda": 6039,
      "Ġthousands": 6040,
      "Ġsupplies": 6041,
      "ĠMorrison": 6042,
      "uilding": 6043,
      "ĠBrazil": 6044,
      "BS": 6045,
      "ux": 6046,
      "Å¡": 6047,
      "Ġice": 6048,
      "inated": 6049,
      "Ġwick": 6050,
      "Ġcit": 6051,
      "itan": 6052,
      "isf": 6053,
      "Ġdating": 6054,
      "Ġeyes": 6055,
      "ĠHindu": 6056,
      "ĠRangers": 6057,
      "anda": 6058,
      "estone": 6059,
      "ĠLieutenant": 6060,
      "Ġrac": 6061,
      "Ġrural": 6062,
      "sey": 6063,
      "ĠUTC": 6064,
      "iece": 6065,
      "rupt": 6066,
      "outs": 6067,
      "Ġrose": 6068,
      "Ġteaching": 6069,
      "Ġjack": 6070,
      "Ġoverse": 6071,
      "Ġsecure": 6072,
      "ĠArts": 6073,
      "Ġregime": 6074,
      "Ġemperor": 6075,
      "Ġ176": 6076,
      "ĠAustralians": 6077,
      "ĠCommittee": 6078,
      "Ġextrem": 6079,
      "Ġturning": 6080,
      "Ġcommanded": 6081,
      "ĠGeorgian": 6082,
      "Ġinspir": 6083,
      "Ġremainder": 6084,
      "ĠOffice": 6085,
      "Ġconsisting": 6086,
      "ĠHollywood": 6087,
      "Ġopposition": 6088,
      "Ġinstrument": 6089,
      "Ġsplit": 6090,
      "ĠSecretary": 6091,
      "ĠLiu": 6092,
      "ĠVenus": 6093,
      "Ġcertified": 6094,
      "From": 6095,
      "RE": 6096,
      "gÃ©": 6097,
      "jillo": 6098,
      "pany": 6099,
      "rons": 6100,
      "Ġurban": 6101,
      "Ġaware": 6102,
      "Ġdog": 6103,
      "Ġdru": 6104,
      "ĠTra": 6105,
      "Ġeld": 6106,
      "ĠCle": 6107,
      "ĠBh": 6108,
      "igation": 6109,
      "ĠDo": 6110,
      "ĠDota": 6111,
      "ĠNative": 6112,
      "ĠGram": 6113,
      "Ġ77": 6114,
      "ĠMarine": 6115,
      "Ġnoisy": 6116,
      "Ġdefined": 6117,
      "Ġquite": 6118,
      "ologists": 6119,
      "Ġhighlight": 6120,
      "Ġsurrender": 6121,
      "Ġaddress": 6122,
      "Ġ1963": 6123,
      "Ġ1978": 6124,
      "Ġoccurs": 6125,
      "ĠWhat": 6126,
      "Ġ1953": 6127,
      "ĠTeam": 6128,
      "Ġcourts": 6129,
      "Ġaffect": 6130,
      "Ġtechnical": 6131,
      "Ġvalley": 6132,
      "Ġrevolution": 6133,
      "ĠBrook": 6134,
      "Ġeconomy": 6135,
      "Ġestablishment": 6136,
      "Ġassistance": 6137,
      "ĠCroatian": 6138,
      "Ġpowers": 6139,
      "ĠFriends": 6140,
      "ĠAdditionally": 6141,
      "ĠSunday": 6142,
      "Ġdrug": 6143,
      "lik": 6144,
      "ĪĴ": 6145,
      "inosaur": 6146,
      "ena": 6147,
      "Ġpet": 6148,
      "Ġdry": 6149,
      "ilton": 6150,
      "ĠAer": 6151,
      "ĠSound": 6152,
      "ela": 6153,
      "ĠMat": 6154,
      "ider": 6155,
      "ĠHan": 6156,
      "ĠHoly": 6157,
      "ĠGre": 6158,
      "ĠGang": 6159,
      "ewhere": 6160,
      "apers": 6161,
      "ighter": 6162,
      "aked": 6163,
      "ĠIng": 6164,
      "Ġleaves": 6165,
      "Ġresist": 6166,
      "ressive": 6167,
      "Ġfinishing": 6168,
      "Ġattached": 6169,
      "issipp": 6170,
      "Ġinterior": 6171,
      "Ġstudied": 6172,
      "Ġleads": 6173,
      "Ġdownlo": 6174,
      "Ġdisturb": 6175,
      "Ġreputation": 6176,
      "Ġsuccessor": 6177,
      "ennon": 6178,
      "Ġviews": 6179,
      "ivalent": 6180,
      "ĠMississipp": 6181,
      "Ġsurviv": 6182,
      "Ġproducing": 6183,
      "Ġdenied": 6184,
      "Ġjourney": 6185,
      "Ġshooting": 6186,
      "Ġmethods": 6187,
      "Ġportrayed": 6188,
      "ĠAlexander": 6189,
      "ĠEngineer": 6190,
      "Ġstrengthen": 6191,
      "ĠMississippi": 6192,
      "bles": 6193,
      "ture": 6194,
      "Ġtable": 6195,
      "Ġsle": 6196,
      "Ġlane": 6197,
      "uration": 6198,
      "ĠPers": 6199,
      "ĠDown": 6200,
      "andy": 6201,
      "agues": 6202,
      "ĠLuc": 6203,
      "ĠJud": 6204,
      "Ġrub": 6205,
      "rier": 6206,
      "Ġsud": 6207,
      "ardo": 6208,
      "Ġkits": 6209,
      "ĠChronic": 6210,
      "Ġrob": 6211,
      "Ġoffense": 6212,
      "Ġupd": 6213,
      "Ġprey": 6214,
      "Ġgameplay": 6215,
      "Ġentry": 6216,
      "Ġentering": 6217,
      "Ġmaintain": 6218,
      "Ġdepos": 6219,
      "Ġ1915": 6220,
      "Ġcamps": 6221,
      "Ġprotected": 6222,
      "Ġcrime": 6223,
      "ĠPerry": 6224,
      "ĠAbout": 6225,
      "ĠSimon": 6226,
      "ĠStevens": 6227,
      "Ġgetting": 6228,
      "Ġmissions": 6229,
      "ĠMaryland": 6230,
      "Ġindicate": 6231,
      "Ġimmig": 6232,
      "senal": 6233,
      "Ġhabitat": 6234,
      "ĠDirector": 6235,
      "ĠColumbia": 6236,
      "Ġworst": 6237,
      "Ġdismissed": 6238,
      "Ġintelligence": 6239,
      "OT": 6240,
      "SB": 6241,
      "born": 6242,
      "kins": 6243,
      "var": 6244,
      "Ġcrown": 6245,
      "Ġpuzz": 6246,
      "ĠTim": 6247,
      "ĠAst": 6248,
      "ador": 6249,
      "ivity": 6250,
      "ĠBur": 6251,
      "Ġstones": 6252,
      "ĠHug": 6253,
      "ĠHomer": 6254,
      "ette": 6255,
      "unket": 6256,
      "ĠRun": 6257,
      "ĠRidge": 6258,
      "osa": 6259,
      "ĠLy": 6260,
      "ĠLow": 6261,
      "ĠLife": 6262,
      "Ġvon": 6263,
      "Ġexerc": 6264,
      "ĠâĪĴ": 6265,
      "Ġnoting": 6266,
      "ipl": 6267,
      "ells": 6268,
      "Ġattributed": 6269,
      "Ġknots": 6270,
      "Ġ98": 6271,
      "ĠArthur": 6272,
      "Ġcharges": 6273,
      "ropri": 6274,
      "Ġcapacity": 6275,
      "Ġmonarch": 6276,
      "Ġmonument": 6277,
      "Ġclasses": 6278,
      "Ġreplace": 6279,
      "Ġbasin": 6280,
      "Ġpolitics": 6281,
      "Ġfranch": 6282,
      "Ġnovels": 6283,
      "Ġcharts": 6284,
      "Ġintroduction": 6285,
      "ĠSimone": 6286,
      "Ġinterested": 6287,
      "Ġholds": 6288,
      "offman": 6289,
      "ĠBroad": 6290,
      "Ġdiscussed": 6291,
      "ĠWalter": 6292,
      "Ġdollars": 6293,
      "ĠSamuel": 6294,
      "Ġdescription": 6295,
      "ĠTrujillo": 6296,
      "ĠHornung": 6297,
      "Ġmushroom": 6298,
      "Ġadapted": 6299,
      "ecess": 6300,
      "host": 6301,
      "town": 6302,
      "erog": 6303,
      "Ġworth": 6304,
      "orters": 6305,
      "Ġcab": 6306,
      "enge": 6307,
      "Ġbaby": 6308,
      "Ġpal": 6309,
      "Ġpound": 6310,
      "Ġmort": 6311,
      "icial": 6312,
      "Ġdie": 6313,
      "Ġlin": 6314,
      "Ġlic": 6315,
      "elve": 6316,
      "ĠCrit": 6317,
      "ĠBern": 6318,
      "ĠFar": 6319,
      "ĠDar": 6320,
      "ĠDNA": 6321,
      "ĠDanny": 6322,
      "ĠWall": 6323,
      "ĠWind": 6324,
      "ĠNBC": 6325,
      "Ġsector": 6326,
      "ĠLu": 6327,
      "ĠJersey": 6328,
      "rien": 6329,
      "Ġvic": 6330,
      "Ġvision": 6331,
      "ifying": 6332,
      "opher": 6333,
      "ameter": 6334,
      "ources": 6335,
      "ĠStep": 6336,
      "Ġagent": 6337,
      "Ġoffers": 6338,
      "angerous": 6339,
      "Ġ66": 6340,
      "Ġpublisher": 6341,
      "oba": 6342,
      "ajev": 6343,
      "Ġ1948": 6344,
      "Ġdescribing": 6345,
      "Ġgeneration": 6346,
      "Ġmoder": 6347,
      "Ġ1917": 6348,
      "ĠBefore": 6349,
      "Ġappearing": 6350,
      "Ġmedieval": 6351,
      "ĠPhoen": 6352,
      "Ġfields": 6353,
      "Ġstatement": 6354,
      "Ġhistoric": 6355,
      "Ġcoastal": 6356,
      "Ġpredecess": 6357,
      "Ġelectric": 6358,
      "Ġruled": 6359,
      "Ġaccounts": 6360,
      "ĠArchae": 6361,
      "Ġyounger": 6362,
      "ĠWeekly": 6363,
      "ĠSarajev": 6364,
      "ĠSarajevo": 6365,
      "eg": 6366,
      "mans": 6367,
      "rin": 6368,
      "Ã¨": 6369,
      "intend": 6370,
      "erted": 6371,
      "orough": 6372,
      "Ġcaught": 6373,
      "Ġcinem": 6374,
      "itors": 6375,
      "Ġtomb": 6376,
      "ĠMen": 6377,
      "ĠMul": 6378,
      "ĠIGN": 6379,
      "ĠHard": 6380,
      "ĠRow": 6381,
      "Ġconte": 6382,
      "ĠJac": 6383,
      "Ġvary": 6384,
      "iful": 6385,
      "Ġexpect": 6386,
      "Ġplants": 6387,
      "ĠChart": 6388,
      "Ġarts": 6389,
      "ube": 6390,
      "Ġdesire": 6391,
      "ĠAlbert": 6392,
      "formation": 6393,
      "attle": 6394,
      "Ġsomeone": 6395,
      "Ġapart": 6396,
      "Ġsoil": 6397,
      "Ġretire": 6398,
      "ankovic": 6399,
      "Ġ1951": 6400,
      "Ġcharacteristics": 6401,
      "Ġbasic": 6402,
      "Ġeverything": 6403,
      "Ġdiscovery": 6404,
      "Ġ1890": 6405,
      "Ġdifficulty": 6406,
      "Ġhonour": 6407,
      "Ġtribes": 6408,
      "Ġzone": 6409,
      "Ġexception": 6410,
      "Ġrarely": 6411,
      "ĠHoward": 6412,
      "Ġconsiderable": 6413,
      "ĠBradford": 6414,
      "ĠVictoria": 6415,
      "Ġemotional": 6416,
      "Ġninth": 6417,
      "ĠCharlie": 6418,
      "Ġarticle": 6419,
      "ĠIndustry": 6420,
      "Ġrestaurant": 6421,
      "OC": 6422,
      "ez": 6423,
      "ients": 6424,
      "oth": 6425,
      "Ġtaught": 6426,
      "orer": 6427,
      "itage": 6428,
      "Ġbond": 6429,
      "Ġpup": 6430,
      "ĠAston": 6431,
      "ĠSnow": 6432,
      "ĠML": 6433,
      "ĠIguanodon": 6434,
      "igades": 6435,
      "Ġstore": 6436,
      "othes": 6437,
      "ĠPress": 6438,
      "Ġconve": 6439,
      "ĠDaily": 6440,
      "ĠJay": 6441,
      "rior": 6442,
      "Ġshore": 6443,
      "Ġkings": 6444,
      "ĠKil": 6445,
      "pton": 6446,
      "Ġcontest": 6447,
      "ĠVol": 6448,
      "Ġmanner": 6449,
      "Ġdisappe": 6450,
      "Ġenl": 6451,
      "ĠYour": 6452,
      "ĠYankovic": 6453,
      "Ġshel": 6454,
      "ĠMarsh": 6455,
      "Ġdoct": 6456,
      "Ġ1979": 6457,
      "Ġdistribution": 6458,
      "Ġlanded": 6459,
      "Ġ1954": 6460,
      "Ġevening": 6461,
      "Ġopponents": 6462,
      "Ġpersonnel": 6463,
      "Ġreplacement": 6464,
      "Ġinvolvement": 6465,
      "Ġpitch": 6466,
      "coming": 6467,
      "graded": 6468,
      "Ġrecognition": 6469,
      "ĠActivision": 6470,
      "Ġnomination": 6471,
      "Ġspecifically": 6472,
      "Ġchapel": 6473,
      "Ġwooden": 6474,
      "Ġforests": 6475,
      "Ġcolonial": 6476,
      "ĠStrand": 6477,
      "Ġhotel": 6478,
      "Ġrhyth": 6479,
      "Ġthirty": 6480,
      "ĠLisa": 6481,
      "ĠFamily": 6482,
      "Ġsudden": 6483,
      "30": 6484,
      "Brien": 6485,
      "aire": 6486,
      "can": 6487,
      "hi": 6488,
      "nest": 6489,
      "ym": 6490,
      "Ã¶": 6491,
      "Ġfan": 6492,
      "Ġfair": 6493,
      "ingale": 6494,
      "Ġmine": 6495,
      "Ġhope": 6496,
      "ĠTop": 6497,
      "ĠSanta": 6498,
      "ĠRay": 6499,
      "ĠRio": 6500,
      "Ġconsequ": 6501,
      "ĠFame": 6502,
      "ĠNether": 6503,
      "ĠLords": 6504,
      "ifna": 6505,
      "ateur": 6506,
      "Ġrot": 6507,
      "Ġimpr": 6508,
      "ĠYe": 6509,
      "Ġwealth": 6510,
      "Ġsecured": 6511,
      "Ġ87": 6512,
      "Ġsoft": 6513,
      "Ġaccur": 6514,
      "Ġ1937": 6515,
      "Ġbelieves": 6516,
      "ĠRoxas": 6517,
      "psons": 6518,
      "Ġcommunities": 6519,
      "ĠAbb": 6520,
      "Ġdivine": 6521,
      "ĠSimpsons": 6522,
      "Ġpoems": 6523,
      "aska": 6524,
      "Ġrules": 6525,
      "ĠMontana": 6526,
      "ĠJerusal": 6527,
      "ĠSomali": 6528,
      "Ġcontroversy": 6529,
      "Ġpicked": 6530,
      "Ġintersection": 6531,
      "Ġrecommended": 6532,
      "ĠCastle": 6533,
      "ĠFrederick": 6534,
      "ĠBetween": 6535,
      "Ġfungus": 6536,
      "ĠIsabella": 6537,
      "ĠMozamb": 6538,
      "ĠJerusalem": 6539,
      "LI": 6540,
      "eenth": 6541,
      "nell": 6542,
      "named": 6543,
      "rations": 6544,
      "theless": 6545,
      "rets": 6546,
      "itled": 6547,
      "Ġfaces": 6548,
      "Ġmunicip": 6549,
      "Ġlov": 6550,
      "ĠCa": 6551,
      "ĠMaster": 6552,
      "ĠPope": 6553,
      "ĠRÃ©": 6554,
      "ĠWars": 6555,
      "ava": 6556,
      "ĠJoe": 6557,
      "Ġru": 6558,
      "ĠEarl": 6559,
      "Ġvan": 6560,
      "ultane": 6561,
      "ĠAlan": 6562,
      "Ġreleg": 6563,
      "Ġwhereas": 6564,
      "Ġ1961": 6565,
      "Ġsigning": 6566,
      "Ġ1955": 6567,
      "ĠTelevision": 6568,
      "Ġstandards": 6569,
      "Ġlegs": 6570,
      "Ġjoint": 6571,
      "ĠCalvert": 6572,
      "Ġappoint": 6573,
      "Ġmissed": 6574,
      "Ġlaunch": 6575,
      "Ġdrawing": 6576,
      "Ġvolunte": 6577,
      "ĠDuke": 6578,
      "ĠOlympics": 6579,
      "ĠÃĹ": 6580,
      "Ġscholar": 6581,
      "ĠCampb": 6582,
      "Ġconcerns": 6583,
      "Ġleadership": 6584,
      "Ġprincipal": 6585,
      "ĠUpon": 6586,
      "Ġspecimens": 6587,
      "ĠColonel": 6588,
      "ĠIndependent": 6589,
      "ĠArgentina": 6590,
      "ĠBono": 6591,
      "Ġorganizations": 6592,
      "ĠRolling": 6593,
      "Ġextremely": 6594,
      "och": 6595,
      "Ġsession": 6596,
      "Ġcard": 6597,
      "ĠTel": 6598,
      "amber": 6599,
      "ĠCat": 6600,
      "Ġgal": 6601,
      "Ġstream": 6602,
      "ceived": 6603,
      "ĠPatt": 6604,
      "ĠRif": 6605,
      "Ġconference": 6606,
      "ĠFire": 6607,
      "ĠDis": 6608,
      "ĠWalk": 6609,
      "osure": 6610,
      "avia": 6611,
      "ĠLess": 6612,
      "uma": 6613,
      "istol": 6614,
      "Ġexisted": 6615,
      "Ġyouth": 6616,
      "earch": 6617,
      "ureau": 6618,
      "Ġparties": 6619,
      "Ġpartners": 6620,
      "Ġteeth": 6621,
      "Ġjazz": 6622,
      "wealth": 6623,
      "Ġcommit": 6624,
      "Ġspeech": 6625,
      "Ġ69": 6626,
      "ĠLee": 6627,
      "Ġshowing": 6628,
      "Ġdistributed": 6629,
      "ĠBeach": 6630,
      "ĠForces": 6631,
      "Ġapproached": 6632,
      "Ġtries": 6633,
      "engers": 6634,
      "ombat": 6635,
      "ĠEliz": 6636,
      "Ġrelationships": 6637,
      "Ġtreaty": 6638,
      "Ġdiameter": 6639,
      "Ġthreatened": 6640,
      "Ġsurrounded": 6641,
      "ĠMilitary": 6642,
      "Ġchemical": 6643,
      "ranean": 6644,
      "ĠDestiny": 6645,
      "Ġconnection": 6646,
      "gie": 6647,
      "ipe": 6648,
      "wise": 6649,
      "ys": 6650,
      "reets": 6651,
      "Ġwants": 6652,
      "Ġwrong": 6653,
      "edom": 6654,
      "atures": 6655,
      "alent": 6656,
      "Ġpage": 6657,
      "Ġhill": 6658,
      "add": 6659,
      "acent": 6660,
      "Ġstem": 6661,
      "ĠHell": 6662,
      "Ġalien": 6663,
      "ĠFel": 6664,
      "ĠDom": 6665,
      "ĠDet": 6666,
      "Ġ1900": 6667,
      "ĠWy": 6668,
      "Ġshark": 6669,
      "Ġdisapp": 6670,
      "ĠYan": 6671,
      "Ġ79": 6672,
      "ĠAnton": 6673,
      "Ġproduct": 6674,
      "Ġ1949": 6675,
      "Ġ1977": 6676,
      "Ġ1958": 6677,
      "Ġstrateg": 6678,
      "Ã©t": 6679,
      "ĠPrime": 6680,
      "Ġreferences": 6681,
      "Ġsolid": 6682,
      "Ġhistorians": 6683,
      "ĠSimilar": 6684,
      "Ġseeing": 6685,
      "Ġcrossed": 6686,
      "Ġfacing": 6687,
      "Ġregularly": 6688,
      "Ġconduct": 6689,
      "ĠDepression": 6690,
      "Ġrailway": 6691,
      "Ġimmediate": 6692,
      "Ġfiring": 6693,
      "Ġfavorite": 6694,
      "Ġhoped": 6695,
      "Ġemerged": 6696,
      "Ġdocumentary": 6697,
      "Ġinstitutions": 6698,
      "Ġlbw": 6699,
      "Ġalternative": 6700,
      "Ġratings": 6701,
      "Ġexpedition": 6702,
      "Ġunusual": 6703,
      "cribed": 6704,
      "Ġisolated": 6705,
      "ĠFrancisco": 6706,
      "Ġsynthes": 6707,
      "Ġeuropium": 6708,
      "dal": 6709,
      "rab": 6710,
      "inals": 6711,
      "Ġsoul": 6712,
      "Ġcold": 6713,
      "Ġbes": 6714,
      "Ġinland": 6715,
      "Ġpack": 6716,
      "ĠSpring": 6717,
      "ĠMot": 6718,
      "owie": 6719,
      "usad": 6720,
      "union": 6721,
      "Ġpros": 6722,
      "aprang": 6723,
      "abeth": 6724,
      "Ġleuk": 6725,
      "ĠKat": 6726,
      "ideos": 6727,
      "oked": 6728,
      "Ġadmitted": 6729,
      "Ġscrap": 6730,
      "Ġpartial": 6731,
      "ĠMarc": 6732,
      "Ġregional": 6733,
      "Ġassumed": 6734,
      "Ġindig": 6735,
      "Ġ121": 6736,
      "iversary": 6737,
      "Ġbright": 6738,
      "Ġdiscip": 6739,
      "Ġexpansion": 6740,
      "Ġowner": 6741,
      "Ġdesignation": 6742,
      "Ġwarm": 6743,
      "Ġpointed": 6744,
      "ossible": 6745,
      "Ġanniversary": 6746,
      "ĠPlunket": 6747,
      "ĠCarter": 6748,
      "Ġbreaking": 6749,
      "Ġdemol": 6750,
      "ĠOrder": 6751,
      "Ġstrongly": 6752,
      "Ġchanging": 6753,
      "Ġdetail": 6754,
      "Ġdestroyers": 6755,
      "ĠStef": 6756,
      "Ġprotests": 6757,
      "Ġtreated": 6758,
      "ÃŃvar": 6759,
      "ĠHamilton": 6760,
      "Ġlanguages": 6761,
      "ooth": 6762,
      "Ġsequel": 6763,
      "Ġmotor": 6764,
      "Ġliterary": 6765,
      "Ġexamples": 6766,
      "Ġbringing": 6767,
      "ĠJaneiro": 6768,
      "Ġwatershed": 6769,
      "ĠAdams": 6770,
      "Ġmessage": 6771,
      "ĠClarkson": 6772,
      "Ġduties": 6773,
      "Ġprotagonist": 6774,
      "Ġfranchise": 6775,
      "friend": 6776,
      "know": 6777,
      "nie": 6778,
      "uct": 6779,
      "war": 6780,
      "Ã¼": 6781,
      "Ġtie": 6782,
      "onica": 6783,
      "real": 6784,
      "Ġske": 6785,
      "Ġfish": 6786,
      "ingly": 6787,
      "Ġharm": 6788,
      "ĠTower": 6789,
      "ĠAR": 6790,
      "ĠSub": 6791,
      "Ġeighth": 6792,
      "ĠCop": 6793,
      "imet": 6794,
      "Ġstadium": 6795,
      "ĠHere": 6796,
      "ĠFish": 6797,
      "ĠDA": 6798,
      "ĠNap": 6799,
      "Ġsections": 6800,
      "Ġorchest": 6801,
      "Ġchampion": 6802,
      "ĠKel": 6803,
      "Ġtra": 6804,
      "ĠChief": 6805,
      "Ġintention": 6806,
      "ĠHearts": 6807,
      "Ġaged": 6808,
      "Ġoverw": 6809,
      "ibl": 6810,
      "Ġoutf": 6811,
      "Ġmeets": 6812,
      "Ġconsum": 6813,
      "aws": 6814,
      "ĠDevelop": 6815,
      "Ġretreat": 6816,
      "Ġindicated": 6817,
      "Ġ1983": 6818,
      "Ġminister": 6819,
      "ledon": 6820,
      "Ġdepartment": 6821,
      "Ġairline": 6822,
      "Ġwinner": 6823,
      "Ġapproved": 6824,
      "Ġreviewer": 6825,
      "Ġmarks": 6826,
      "Ġdetailed": 6827,
      "Ġgenre": 6828,
      "Ġcoup": 6829,
      "ĠRoberts": 6830,
      "Äģnt": 6831,
      "Ġimprove": 6832,
      "Ġveget": 6833,
      "Ġcircum": 6834,
      "Ġengineering": 6835,
      "Ġcompletion": 6836,
      "Ġabsor": 6837,
      "Ġancest": 6838,
      "Ġattracted": 6839,
      "ĠBCE": 6840,
      "Ġspecimen": 6841,
      "Ġwearing": 6842,
      "Ġrescue": 6843,
      "ĠWilde": 6844,
      "imbledon": 6845,
      "ĠBolÃŃvar": 6846,
      "Ġeggs": 6847,
      "Ġeasily": 6848,
      "Ġacademic": 6849,
      "ĠGeorgia": 6850,
      "Sh": 6851,
      "aug": 6852,
      "mod": 6853,
      "Ġur": 6854,
      "Ġib": 6855,
      "ona": 6856,
      "Ġsun": 6857,
      "atus": 6858,
      "orous": 6859,
      "arp": 6860,
      "ician": 6861,
      "Ġhappy": 6862,
      "ĠAD": 6863,
      "Ġlap": 6864,
      "ĠSquare": 6865,
      "aments": 6866,
      "Ġgather": 6867,
      "ĠIV": 6868,
      "ĠBul": 6869,
      "ĠBank": 6870,
      "ĠHon": 6871,
      "ĠHung": 6872,
      "ĠGil": 6873,
      "allow": 6874,
      "ockey": 6875,
      "Ġtrail": 6876,
      "ĠStation": 6877,
      "pping": 6878,
      "ogether": 6879,
      "oking": 6880,
      "ensus": 6881,
      "Ġacknow": 6882,
      "Ġaccused": 6883,
      "Ġcoord": 6884,
      "Ġsym": 6885,
      "Ġemp": 6886,
      "Ġcarbon": 6887,
      "ĠColor": 6888,
      "Ġattempting": 6889,
      "istered": 6890,
      "Ġlooked": 6891,
      "Ġreading": 6892,
      "Ġsurviving": 6893,
      "Ġpractices": 6894,
      "Ġterritories": 6895,
      "Ġcivilian": 6896,
      "Ġtraveled": 6897,
      "Ġfeeling": 6898,
      "Ġassistant": 6899,
      "ĠSingles": 6900,
      "Ġsettled": 6901,
      "Ġchallenge": 6902,
      "ĠSkye": 6903,
      "ĠSomalia": 6904,
      "Ġconstitution": 6905,
      "Ġencouraged": 6906,
      "Ġterminus": 6907,
      "Ġstarling": 6908,
      "ĠRhodes": 6909,
      "Ġadjacent": 6910,
      "ĠNorman": 6911,
      "ĠShortly": 6912,
      "Ġcitiz": 6913,
      "ban": 6914,
      "bur": 6915,
      "body": 6916,
      "break": 6917,
      "Ġsell": 6918,
      "Ġfer": 6919,
      "Ġbal": 6920,
      "Ġmut": 6921,
      "Ġdock": 6922,
      "ĠTrib": 6923,
      "Ġthin": 6924,
      "Ġnick": 6925,
      "amm": 6926,
      "ĠMortal": 6927,
      "ĠBack": 6928,
      "ĠBase": 6929,
      "Ġstreak": 6930,
      "ĠHo": 6931,
      "ĠWW": 6932,
      "ĠWin": 6933,
      "ĠLennon": 6934,
      "Ġraces": 6935,
      "illing": 6936,
      "ewhat": 6937,
      "Ġshots": 6938,
      "ĠKombat": 6939,
      "Ġrecre": 6940,
      "Ġrecalled": 6941,
      "Ġpartly": 6942,
      "Ġpreced": 6943,
      "Ġevil": 6944,
      "Ġ91": 6945,
      "Ġ88": 6946,
      "Ġunderw": 6947,
      "Ġinterchange": 6948,
      "Ġdecor": 6949,
      "Ġcrest": 6950,
      "Ġobtained": 6951,
      "ĠConst": 6952,
      "Ġ1910": 6953,
      "ĠHergÃ©": 6954,
      "Ġextreme": 6955,
      "Ġpossession": 6956,
      "Ġvisible": 6957,
      "Ġstands": 6958,
      "Ġeffectively": 6959,
      "Ġ1909": 6960,
      "Ġidentity": 6961,
      "Ġconvoy": 6962,
      "Ġ1880": 6963,
      "Ġarmor": 6964,
      "Ġseemed": 6965,
      "Ġgrey": 6966,
      "Ġpainted": 6967,
      "ĠRichardson": 6968,
      "Ġbrothers": 6969,
      "scape": 6970,
      "Ġmulti": 6971,
      "Ġtowers": 6972,
      "ĠTerrit": 6973,
      "Ġarrangement": 6974,
      "ĠFormula": 6975,
      "Ġrecovered": 6976,
      "Ġscientific": 6977,
      "Ġinhabit": 6978,
      "ĠThroughout": 6979,
      "Ġcandidate": 6980,
      "Ġromantic": 6981,
      "ĠJournal": 6982,
      "ĠCambridge": 6983,
      "ĠAttorney": 6984,
      "ĠCommonwealth": 6985,
      "Ġagricultural": 6986,
      "ĠBanai": 6987,
      "ĠAdmiral": 6988,
      "Ġsomewhat": 6989,
      "Ġinspiration": 6990,
      "dess": 6991,
      "rast": 6992,
      "Ġtone": 6993,
      "Ġtheatre": 6994,
      "Ġsan": 6995,
      "Ġocean": 6996,
      "isis": 6997,
      "rosc": 6998,
      "Ġhits": 6999,
      "ĠSi": 7000,
      "ĠSav": 7001,
      "amin": 7002,
      "ĠMu": 7003,
      "ĠMid": 7004,
      "Ġgall": 7005,
      "ĠIron": 7006,
      "thosaurus": 7007,
      "ĠRos": 7008,
      "emia": 7009,
      "ĠWolf": 7010,
      "ĠWimbledon": 7011,
      "Ġhear": 7012,
      "Ġselect": 7013,
      "umps": 7014,
      "Ġproceed": 7015,
      "Ġvideos": 7016,
      "Ġshif": 7017,
      "Ġcompounds": 7018,
      "Ġcloud": 7019,
      "orythosaurus": 7020,
      "Ġteach": 7021,
      "achus": 7022,
      "Ġspaces": 7023,
      "ĠAniston": 7024,
      "Ġ99": 7025,
      "Ġrelative": 7026,
      "ĠMarines": 7027,
      "Ġverse": 7028,
      "Ġfled": 7029,
      "Ġacts": 7030,
      "ropol": 7031,
      "Ġpreserved": 7032,
      "Ġ122": 7033,
      "Ġmaint": 7034,
      "Ġestate": 7035,
      "ekÄģnt": 7036,
      "ĠGermans": 7037,
      "Ġimplement": 7038,
      "ennis": 7039,
      "Ġpassage": 7040,
      "Ġ1931": 7041,
      "Ġ1935": 7042,
      "Ġ1912": 7043,
      "Ġfootage": 7044,
      "Ġequal": 7045,
      "ĠPoland": 7046,
      "Ġcatch": 7047,
      "Ġcycle": 7048,
      "Ġsuffering": 7049,
      "ĠIslands": 7050,
      "Ġreduce": 7051,
      "ĠKeamy": 7052,
      "Ġconvin": 7053,
      "ĠRecording": 7054,
      "Ġhosted": 7055,
      "Ġfunds": 7056,
      "Ġindustrial": 7057,
      "Ġlinked": 7058,
      "Ġspirit": 7059,
      "ĠType": 7060,
      "Ġsculpture": 7061,
      "ĠRyan": 7062,
      "Ġbasketball": 7063,
      "ĠModern": 7064,
      "ĠStephen": 7065,
      "ĠKilmer": 7066,
      "Ar": 7067,
      "cient": 7068,
      "how": 7069,
      "iary": 7070,
      "sewhere": 7071,
      "vious": 7072,
      "ycl": 7073,
      "Ã¤": 7074,
      "Ġere": 7075,
      "Ġtailed": 7076,
      "Ġau": 7077,
      "Ġsessions": 7078,
      "Ġsiege": 7079,
      "Ġwars": 7080,
      "itals": 7081,
      "arning": 7082,
      "Ġmis": 7083,
      "Ġmap": 7084,
      "Ġhip": 7085,
      "ĠTest": 7086,
      "illy": 7087,
      "sta": 7088,
      "Ġlob": 7089,
      "ivals": 7090,
      "using": 7091,
      "ĠPine": 7092,
      "ĠPower": 7093,
      "unior": 7094,
      "Ġconqu": 7095,
      "ĠFlow": 7096,
      "ĠWi": 7097,
      "ĠWat": 7098,
      "ĠNintend": 7099,
      "avÄģda": 7100,
      "Ġdeck": 7101,
      "ĠJifna": 7102,
      "peare": 7103,
      "ĠEdu": 7104,
      "Ġchronic": 7105,
      "abled": 7106,
      "ĠInit": 7107,
      "Ġlearning": 7108,
      "Ġunf": 7109,
      "Ġdispl": 7110,
      "Ġserial": 7111,
      "Ġflo": 7112,
      "ĠDev": 7113,
      "Ġincome": 7114,
      "ificial": 7115,
      "Ġcontinuing": 7116,
      "Ġexpensive": 7117,
      "Ġprovince": 7118,
      "Ġattacking": 7119,
      "Ġ1932": 7120,
      "akespeare": 7121,
      "Ġreviewers": 7122,
      "Ġmedium": 7123,
      "Ġdestruction": 7124,
      "Ġdebate": 7125,
      "attered": 7126,
      "Ġtwelve": 7127,
      "Ġcirculation": 7128,
      "Ġresponsibility": 7129,
      "Ġstayed": 7130,
      "Ġcomposer": 7131,
      "ĠArabic": 7132,
      "Ġdefended": 7133,
      "Ġblocks": 7134,
      "going": 7135,
      "ĠResearch": 7136,
      "ĠHotel": 7137,
      "ĠFIA": 7138,
      "Ġequipped": 7139,
      "Ġopposite": 7140,
      "Ġcontroversial": 7141,
      "Ġadults": 7142,
      "ĠHuman": 7143,
      "Ġincorporated": 7144,
      "uppet": 7145,
      "ĠPeninsula": 7146,
      "ĠRoger": 7147,
      "Ġcorrect": 7148,
      "ĠJesus": 7149,
      "Ġlegend": 7150,
      "erogative": 7151,
      "ĠNintendo": 7152,
      "bishop": 7153,
      "hm": 7154,
      "rig": 7155,
      "rant": 7156,
      "xts": 7157,
      "yles": 7158,
      "Ġic": 7159,
      "onic": 7160,
      "orious": 7161,
      "Ġble": 7162,
      "Ġbay": 7163,
      "Ġinaug": 7164,
      "Ġpric": 7165,
      "Ġpushed": 7166,
      "Ġhall": 7167,
      "ĠAround": 7168,
      "ĠSor": 7169,
      "Ġnone": 7170,
      "ĠCE": 7171,
      "uri": 7172,
      "Ġgone": 7173,
      "ĠRel": 7174,
      "Ġritual": 7175,
      "Ġproport": 7176,
      "ĠOwen": 7177,
      "Ġreserve": 7178,
      "ĠThird": 7179,
      "Ġspin": 7180,
      "Ġsongwrit": 7181,
      "aware": 7182,
      "ĠLev": 7183,
      "Ġpool": 7184,
      "iamond": 7185,
      "inking": 7186,
      "Ġpassengers": 7187,
      "Ġwilling": 7188,
      "Ġ1911": 7189,
      "ĠAllah": 7190,
      "Ġdriving": 7191,
      "ĠFei": 7192,
      "ĠGuy": 7193,
      "Ġ1921": 7194,
      "Ġ1929": 7195,
      "ĠFlight": 7196,
      "Ġlowest": 7197,
      "Ġvictims": 7198,
      "pecies": 7199,
      "Ġpatrol": 7200,
      "Ġpromote": 7201,
      "Ġmeetings": 7202,
      "Ġcrossing": 7203,
      "Ġaccommod": 7204,
      "ĠExp": 7205,
      "Ġfalling": 7206,
      "Ġmeasures": 7207,
      "stitution": 7208,
      "Ġrebels": 7209,
      "ĠLawrence": 7210,
      "Ġobservations": 7211,
      "ĠJean": 7212,
      "Ġvoted": 7213,
      "Ġconcerned": 7214,
      "Ġthrowing": 7215,
      "hews": 7216,
      "ĠBurns": 7217,
      "ĠTransport": 7218,
      "Ġremnants": 7219,
      "Ġparallel": 7220,
      "Ġinitiative": 7221,
      "Ġkitsune": 7222,
      "ĠNetherlands": 7223,
      "And": 7224,
      "Des": 7225,
      "burg": 7226,
      "cation": 7227,
      "cÃŃa": 7228,
      "de": 7229,
      "ses": 7230,
      "yard": 7231,
      "zen": 7232,
      "inje": 7233,
      "err": 7234,
      "Ġsight": 7235,
      "ato": 7236,
      "itated": 7237,
      "Ġinte": 7238,
      "anning": 7239,
      "Ġhat": 7240,
      "ĠSweet": 7241,
      "Ġgross": 7242,
      "olay": 7243,
      "iminal": 7244,
      "uscript": 7245,
      "ĠHospital": 7246,
      "ĠFair": 7247,
      "ĠNick": 7248,
      "agn": 7249,
      "ĠLanc": 7250,
      "Ġcomments": 7251,
      "Ġexha": 7252,
      "Ġplain": 7253,
      "oca": 7254,
      "onder": 7255,
      "arked": 7256,
      "formed": 7257,
      "Ġflat": 7258,
      "Ġacclaim": 7259,
      "Ġretained": 7260,
      "Ġdefences": 7261,
      "Ġ162": 7262,
      "Ġ1962": 7263,
      "Ġreturns": 7264,
      "Ġmusicians": 7265,
      "Ġgovernor": 7266,
      "Ġ1938": 7267,
      "Ġclassical": 7268,
      "roduction": 7269,
      "Ġinvolving": 7270,
      "Ġrepresenting": 7271,
      "Ġpatron": 7272,
      "Ġequivalent": 7273,
      "Ġgoddess": 7274,
      "Ġpraise": 7275,
      "Ġwatch": 7276,
      "Ġvillages": 7277,
      "ĠPalmy": 7278,
      "Ġpitcher": 7279,
      "Ġdifficulties": 7280,
      "Ġsuperior": 7281,
      "Ġraise": 7282,
      "Ġbiography": 7283,
      "ĠPlayer": 7284,
      "ĠQueens": 7285,
      "Ġintensified": 7286,
      "Ġobjects": 7287,
      "Ġabsol": 7288,
      "Ġunderstand": 7289,
      "Ġcarrying": 7290,
      "Ġbehavi": 7291,
      "Ġvessels": 7292,
      "Ġfixed": 7293,
      "Ġbatsman": 7294,
      "ĠCambodia": 7295,
      "ĠStanley": 7296,
      "Ġoccasions": 7297,
      "Ġhydro": 7298,
      "Ġglobal": 7299,
      "Ġethn": 7300,
      "eor": 7301,
      "wich": 7302,
      "Ġsulf": 7303,
      "Ġow": 7304,
      "Ġcry": 7305,
      "Ġcraft": 7306,
      "Ġfal": 7307,
      "Ġfine": 7308,
      "esc": 7309,
      "Ġpsy": 7310,
      "Ġmart": 7311,
      "Ġdivers": 7312,
      "Ġonline": 7313,
      "terbury": 7314,
      "ĠBass": 7315,
      "Ġalleg": 7316,
      "emeter": 7317,
      "ĠFern": 7318,
      "Ġansw": 7319,
      "Ġsees": 7320,
      "ĠLab": 7321,
      "Ġray": 7322,
      "Ġprohib": 7323,
      "Ġorn": 7324,
      "Ġexchange": 7325,
      "ĠStory": 7326,
      "ĠChannel": 7327,
      "Ġresources": 7328,
      "Ġju": 7329,
      "Ġcommitted": 7330,
      "Ġ74": 7331,
      "Ġ82": 7332,
      "ĠShakespeare": 7333,
      "Ġsimultane": 7334,
      "ĠFraser": 7335,
      "Ġ1959": 7336,
      "ĠCanterbury": 7337,
      "Ġperiods": 7338,
      "ĠGeoff": 7339,
      "ĠSpace": 7340,
      "Ġcovers": 7341,
      "Ġdefeating": 7342,
      "Ġdivisions": 7343,
      "Ġlimit": 7344,
      "Ġneeds": 7345,
      "ĠPalace": 7346,
      "Ġaccompany": 7347,
      "Ġmoral": 7348,
      "Ġcollaps": 7349,
      "Ġreveals": 7350,
      "ĠMediter": 7351,
      "Ġrenew": 7352,
      "Ġescort": 7353,
      "ĠEmperor": 7354,
      "ĠPatrick": 7355,
      "Ġpurchase": 7356,
      "Ġnarrative": 7357,
      "Ġvoiced": 7358,
      "ĠPalestine": 7359,
      "ĠGuardian": 7360,
      "ĠAthletic": 7361,
      "Ġcamera": 7362,
      "Ġpreferred": 7363,
      "Ġconcerts": 7364,
      "ĠProtest": 7365,
      "Ġdownload": 7366,
      "Ġsurvivors": 7367,
      "Ġcontext": 7368,
      "ĠElizabeth": 7369,
      "emetery": 7370,
      "ĠMediterranean": 7371,
      "fare": 7372,
      "graf": 7373,
      "ka": 7374,
      "mine": 7375,
      "uilt": 7376,
      "Ġtick": 7377,
      "rel": 7378,
      "Ġsam": 7379,
      "Ġcul": 7380,
      "Ġfold": 7381,
      "esi": 7382,
      "esse": 7383,
      "rot": 7384,
      "oming": 7385,
      "ĠCru": 7386,
      "Ġash": 7387,
      "ĠHun": 7388,
      "ĠPul": 7389,
      "ĠDC": 7390,
      "ĠWicc": 7391,
      "osl": 7392,
      "ĠLink": 7393,
      "ĠJoy": 7394,
      "Ġrugby": 7395,
      "resents": 7396,
      "apped": 7397,
      "ophy": 7398,
      "atech": 7399,
      "Ġexit": 7400,
      "uda": 7401,
      "elli": 7402,
      "Ġagree": 7403,
      "Ġfeather": 7404,
      "Ġproducts": 7405,
      "Ġformally": 7406,
      "Ġfollowers": 7407,
      "Ġ06": 7408,
      "Ġ07": 7409,
      "Ġ161": 7410,
      "annah": 7411,
      "Ġoperating": 7412,
      "Ġrepresents": 7413,
      "raph": 7414,
      "ooking": 7415,
      "ahl": 7416,
      "Ġconsiders": 7417,
      "ĠUSD": 7418,
      "Ġrefers": 7419,
      "affles": 7420,
      "Ġcovering": 7421,
      "Ġelse": 7422,
      "Ġelabor": 7423,
      "Ġcriticised": 7424,
      "Ġinfluences": 7425,
      "Ġdetect": 7426,
      "ĠAtlanta": 7427,
      "Ġdoesn": 7428,
      "Ġsteel": 7429,
      "Ġcloser": 7430,
      "ĠChampionships": 7431,
      "Ġtribut": 7432,
      "Ġfeelings": 7433,
      "urtado": 7434,
      "Ġvisitors": 7435,
      "Ġabsence": 7436,
      "ĠLawton": 7437,
      "ĠEnterprise": 7438,
      "Ġnormally": 7439,
      "ĠPitman": 7440,
      "Ġhundreds": 7441,
      "onnaissance": 7442,
      "Ġlegislation": 7443,
      "Ġdeployed": 7444,
      "ĠKorean": 7445,
      "Ġarrested": 7446,
      "Ġproposal": 7447,
      "Ġdialogue": 7448,
      "ĠPhillies": 7449,
      "Ġpupils": 7450,
      "Ġrhythm": 7451,
      "Ġmunicipal": 7452,
      "ĠCathedral": 7453,
      "ĠColorado": 7454,
      "after": 7455,
      "eke": 7456,
      "mn": 7457,
      "ng": 7458,
      "Ġoption": 7459,
      "organ": 7460,
      "isms": 7461,
      "Ġbone": 7462,
      "Ġbrick": 7463,
      "Ġpure": 7464,
      "Ġdim": 7465,
      "Ġdens": 7466,
      "Ġdiet": 7467,
      "ĠCab": 7468,
      "urday": 7469,
      "iders": 7470,
      "ĠBos": 7471,
      "ĠBert": 7472,
      "Ġstable": 7473,
      "otic": 7474,
      "ĠPo": 7475,
      "ĠRaffles": 7476,
      "agu": 7477,
      "ĠLoc": 7478,
      "Ġdeem": 7479,
      "rif": 7480,
      "Ġvent": 7481,
      "ĠUsta": 7482,
      "Ġreconnaissance": 7483,
      "Ġmanuscript": 7484,
      "Ġ93": 7485,
      "Ġprerogative": 7486,
      "Ġforming": 7487,
      "Ġamino": 7488,
      "Ġsurpr": 7489,
      "Ġ166": 7490,
      "ĠJohnston": 7491,
      "Ġinfrast": 7492,
      "ullen": 7493,
      "Ġextent": 7494,
      "Ġclassic": 7495,
      "Ġtrading": 7496,
      "Ġskull": 7497,
      "Ã¡r": 7498,
      "Ġhyp": 7499,
      "Ġbiographer": 7500,
      "Ġpoorly": 7501,
      "Ġstationed": 7502,
      "ĠImperial": 7503,
      "Ġensure": 7504,
      "Ġmoments": 7505,
      "Ġinternal": 7506,
      "Ġdrums": 7507,
      "ĠSaturday": 7508,
      "Ġmuscaria": 7509,
      "ĠDominican": 7510,
      "ĠNHL": 7511,
      "Ġsubmarine": 7512,
      "Ġresearchers": 7513,
      "Ġreconstruction": 7514,
      "ĠGrammy": 7515,
      "Ġconvection": 7516,
      "Ġbehaviour": 7517,
      "ĠUstaÅ¡": 7518,
      "eper": 7519,
      "ias": 7520,
      "Ġswe": 7521,
      "Ġsaves": 7522,
      "Ġsunk": 7523,
      "Ġwings": 7524,
      "Ġcreek": 7525,
      "Ġbat": 7526,
      "Ġblow": 7527,
      "ĠTig": 7528,
      "state": 7529,
      "Ġlose": 7530,
      "Ġlists": 7531,
      "ĠSher": 7532,
      "Ġet": 7533,
      "ĠCorn": 7534,
      "ĠChen": 7535,
      "ĠCorythosaurus": 7536,
      "ĠMel": 7537,
      "Ġstreets": 7538,
      "ote": 7539,
      "ĠRugby": 7540,
      "eman": 7541,
      "ĠGib": 7542,
      "ĠOur": 7543,
      "Ġorbit": 7544,
      "ogen": 7545,
      "Ġintense": 7546,
      "Ġ89": 7547,
      "Ġverte": 7548,
      "Ġappropri": 7549,
      "Ġ05": 7550,
      "Ġentitled": 7551,
      "Ġtransition": 7552,
      "Ġuseful": 7553,
      "Ġmodified": 7554,
      "Ġannually": 7555,
      "Ġdriven": 7556,
      "Ġextension": 7557,
      "Ġconstruct": 7558,
      "ĠOrgan": 7559,
      "Ġinfluential": 7560,
      "encies": 7561,
      "Ġposted": 7562,
      "ĠMexican": 7563,
      "Ġinjuries": 7564,
      "Ġwithdrew": 7565,
      "Ġdisplays": 7566,
      "Ġmemory": 7567,
      "Ġcruiser": 7568,
      "Ġdramatic": 7569,
      "Ġpurposes": 7570,
      "iques": 7571,
      "Ġdynasty": 7572,
      "ĠGarcÃŃa": 7573,
      "Ġinterpret": 7574,
      "ĠMarlborough": 7575,
      "Ġoverwhel": 7576,
      "Be": 7577,
      "Other": 7578,
      "ds": 7579,
      "rine": 7580,
      "sch": 7581,
      "vention": 7582,
      "vements": 7583,
      "vati": 7584,
      "Åį": 7585,
      "Ġtight": 7586,
      "Ġtank": 7587,
      "inet": 7588,
      "eratops": 7589,
      "rell": 7590,
      "Ġsaved": 7591,
      "aten": 7592,
      "oral": 7593,
      "icop": 7594,
      "Ġdinosaur": 7595,
      "Ġhang": 7596,
      "lete": 7597,
      "Ġrepr": 7598,
      "ĠTreat": 7599,
      "Ġloy": 7600,
      "ĠCape": 7601,
      "ĠMother": 7602,
      "ĠBron": 7603,
      "ĠHud": 7604,
      "ĠHok": 7605,
      "etts": 7606,
      "ĠPA": 7607,
      "Ġcong": 7608,
      "uls": 7609,
      "ĠFront": 7610,
      "ĠDi": 7611,
      "ĠNow": 7612,
      "Ġrated": 7613,
      "Ġrates": 7614,
      "Ġridge": 7615,
      "Ġvac": 7616,
      "Ġorb": 7617,
      "Ġchoir": 7618,
      "Ġexcess": 7619,
      "Ġplane": 7620,
      "ĠKit": 7621,
      "ĠStock": 7622,
      "Ġclock": 7623,
      "ĠVII": 7624,
      "Ġago": 7625,
      "Ġotherwise": 7626,
      "Ġspoke": 7627,
      "arker": 7628,
      "Ġ63": 7629,
      "mann": 7630,
      "Ġ900": 7631,
      "Ġwritings": 7632,
      "Ġactual": 7633,
      "Ġammun": 7634,
      "Ġseverely": 7635,
      "Ġoriginated": 7636,
      "Ġshipping": 7637,
      "Ġinstalled": 7638,
      "ĠGerard": 7639,
      "Ġgenerated": 7640,
      "Ġexposure": 7641,
      "ĠBlood": 7642,
      "ĠTechn": 7643,
      "Ġhelicop": 7644,
      "Ġrestrict": 7645,
      "Ġ1928": 7646,
      "Ġengines": 7647,
      "Ġdemand": 7648,
      "Ġsuggesting": 7649,
      "Ġframe": 7650,
      "ĠParvati": 7651,
      "Ġfactors": 7652,
      "Ġinterests": 7653,
      "Ġwatching": 7654,
      "Ġreaders": 7655,
      "Ġchess": 7656,
      "ĠTownship": 7657,
      "Ġcrosses": 7658,
      "Ġburned": 7659,
      "Ġinformed": 7660,
      "Ġkingdom": 7661,
      "Ġmaterials": 7662,
      "Ġsatisf": 7663,
      "Ġunderstanding": 7664,
      "ĠNorway": 7665,
      "Ġessential": 7666,
      "ĠKrak": 7667,
      "Ġapparently": 7668,
      "Ġsubspecies": 7669,
      "ĠSpecial": 7670,
      "Ġjournalist": 7671,
      "Ġdoubt": 7672,
      "Ġhappened": 7673,
      "Ġpanel": 7674,
      "Ġpicture": 7675,
      "Ġcustom": 7676,
      "Ġchairman": 7677,
      "Ġjackrab": 7678,
      "ĠRÃ©union": 7679,
      "ĠPlunketts": 7680,
      "ĠDAG": 7681,
      "Ġcircumstances": 7682,
      "achusetts": 7683,
      "Ġammunition": 7684,
      "To": 7685,
      "ef": 7686,
      "gency": 7687,
      "ni": 7688,
      "ris": 7689,
      "rants": 7690,
      "yc": 7691,
      "á»": 7692,
      "Ġille": 7693,
      "Ġtests": 7694,
      "heera": 7695,
      "Ġcart": 7696,
      "Ġciting": 7697,
      "Ġfestival": 7698,
      "icate": 7699,
      "Ġready": 7700,
      "ilst": 7701,
      "ĠAld": 7702,
      "ĠSa": 7703,
      "ĠCook": 7704,
      "acle": 7705,
      "ĠMah": 7706,
      "ĠBed": 7707,
      "ĠHou": 7708,
      "utz": 7709,
      "chang": 7710,
      "ĠFree": 7711,
      "ĠDark": 7712,
      "aga": 7713,
      "ĠGwen": 7714,
      "ĠEs": 7715,
      "ĠEric": 7716,
      "ateau": 7717,
      "ables": 7718,
      "ĠInc": 7719,
      "oven": 7720,
      "raham": 7721,
      "Ġrecur": 7722,
      "Ġpartially": 7723,
      "Ġdisaster": 7724,
      "Ġearn": 7725,
      "Ġrelie": 7726,
      "Ġcancer": 7727,
      "ĠMarg": 7728,
      "Ġmovements": 7729,
      "ifications": 7730,
      "Ġeleven": 7731,
      "annada": 7732,
      "ĠBranch": 7733,
      "Ġbelt": 7734,
      "Ġoperate": 7735,
      "Ġgenerals": 7736,
      "Ġcarved": 7737,
      "Ġimpossible": 7738,
      "ĠMega": 7739,
      "Ġlatex": 7740,
      "ĠGuide": 7741,
      "urricanes": 7742,
      "Ġlisten": 7743,
      "Ġ1927": 7744,
      "Ġcauses": 7745,
      "ĠPeters": 7746,
      "Ġparish": 7747,
      "ĠMinistry": 7748,
      "Ġvictories": 7749,
      "ĠRichmond": 7750,
      "Ġmixture": 7751,
      "Ġsurvive": 7752,
      "restling": 7753,
      "ĠCorpor": 7754,
      "Ġburning": 7755,
      "ĠMedia": 7756,
      "ĠWilson": 7757,
      "Ġlayer": 7758,
      "ĠIsraeli": 7759,
      "Ġbombard": 7760,
      "Ġadministr": 7761,
      "Ġshells": 7762,
      "Ġinstruments": 7763,
      "Ġstarlings": 7764,
      "Ġbehavior": 7765,
      "Ġdeparture": 7766,
      "ĠHistoric": 7767,
      "ĠMassachusetts": 7768,
      "ĠSwedish": 7769,
      "Ġsubstantial": 7770,
      "Ġoverseas": 7771,
      "Ġresistance": 7772,
      "ekÄģntavÄģda": 7773,
      "ĠUstaÅ¡e": 7774,
      "Many": 7775,
      "OK": 7776,
      "life": 7777,
      "pent": 7778,
      "yria": 7779,
      "zac": 7780,
      "Ê»": 7781,
      "Ġsquadron": 7782,
      "Ġwine": 7783,
      "Ġdangerous": 7784,
      "lets": 7785,
      "iling": 7786,
      "Ġlover": 7787,
      "Ġliber": 7788,
      "ĠCBS": 7789,
      "Ġwasn": 7790,
      "Ġbearing": 7791,
      "urse": 7792,
      "ĠMand": 7793,
      "ĠMÃ¡r": 7794,
      "ĠBureau": 7795,
      "ithic": 7796,
      "ĠHamp": 7797,
      "ĠFurtado": 7798,
      "andoba": 7799,
      "osm": 7800,
      "ĠNichol": 7801,
      "ĠGary": 7802,
      "ĠLate": 7803,
      "Ġshut": 7804,
      "ĠInt": 7805,
      "aste": 7806,
      "ĠKar": 7807,
      "ĠKannada": 7808,
      "ears": 7809,
      "ĠStop": 7810,
      "teenth": 7811,
      "Ġclimate": 7812,
      "Ġabund": 7813,
      "Ġrooms": 7814,
      "Ġresigned": 7815,
      "ricted": 7816,
      "Ġafterwards": 7817,
      "Ġspores": 7818,
      "ĠYug": 7819,
      "Ġcommem": 7820,
      "Ġspend": 7821,
      "ĠReal": 7822,
      "Ġamateur": 7823,
      "Ġsupporters": 7824,
      "Ġinstance": 7825,
      "Ġmusician": 7826,
      "Ġmodels": 7827,
      "Ġ1933": 7828,
      "Ġrestored": 7829,
      "Ġmarry": 7830,
      "Ġphr": 7831,
      "quez": 7832,
      "Ġtemples": 7833,
      "Ġcompete": 7834,
      "Ġinteresting": 7835,
      "Ġlooks": 7836,
      "Ġtechniques": 7837,
      "ĠFederal": 7838,
      "Ġelectronic": 7839,
      "Ġ1860": 7840,
      "Ġsequences": 7841,
      "Ġengineers": 7842,
      "Ġthinking": 7843,
      "Ġtribute": 7844,
      "Ġloan": 7845,
      "Ġpersu": 7846,
      "forced": 7847,
      "Ġestablishing": 7848,
      "Ġdocuments": 7849,
      "itzer": 7850,
      "rorist": 7851,
      "ASA": 7852,
      "Ġstruggle": 7853,
      "Ġwindows": 7854,
      "Ġpremiered": 7855,
      "Ġbeautiful": 7856,
      "ĠWriting": 7857,
      "ĠStewart": 7858,
      "ĠYanke": 7859,
      "ĠStefani": 7860,
      "ĠDevelopment": 7861,
      "ĠMÃ¡rquez": 7862,
      "ĠYugosl": 7863,
      "CA": 7864,
      "DH": 7865,
      "Hg": 7866,
      "MO": 7867,
      "Sever": 7868,
      "nal": 7869,
      "pes": 7870,
      "western": 7871,
      "Ġtip": 7872,
      "Ġsale": 7873,
      "Ġfram": 7874,
      "ĠinHg": 7875,
      "Ġpale": 7876,
      "Ġmode": 7877,
      "roit": 7878,
      "leph": 7879,
      "ĠTam": 7880,
      "ĠAP": 7881,
      "omura": 7882,
      "ĠMasters": 7883,
      "Ġgard": 7884,
      "Ġforcing": 7885,
      "ĠHind": 7886,
      "ĠHob": 7887,
      "otton": 7888,
      "ĠPict": 7889,
      "ĠDur": 7890,
      "Ġheat": 7891,
      "ĠLith": 7892,
      "ĠLabor": 7893,
      "ĠJr": 7894,
      "ĠJenn": 7895,
      "ĠEagle": 7896,
      "Ġprove": 7897,
      "ĠâĤ": 7898,
      "Ġnotably": 7899,
      "iped": 7900,
      "ishment": 7901,
      "Ġunion": 7902,
      "Ġunlike": 7903,
      "Ġrecru": 7904,
      "ryce": 7905,
      "Ġoutl": 7906,
      "rene": 7907,
      "Ġ68": 7908,
      "ĠUnlike": 7909,
      "Ġremember": 7910,
      "Ġinteraction": 7911,
      "Ġsubst": 7912,
      "Ġminimum": 7913,
      "Ġartwork": 7914,
      "Ġartificial": 7915,
      "Ġdesigns": 7916,
      "ĠWho": 7917,
      "Ġoffices": 7918,
      "Ġ1957": 7919,
      "Ġadvis": 7920,
      "Ġstorms": 7921,
      "onto": 7922,
      "Ġcriminal": 7923,
      "Ġsituated": 7924,
      "Ġelsewhere": 7925,
      "Ġdivor": 7926,
      "ĠWithin": 7927,
      "Ġpredomin": 7928,
      "Ġrecognised": 7929,
      "Ġachieve": 7930,
      "Ġmerch": 7931,
      "Ġtransportation": 7932,
      "ĠToronto": 7933,
      "Ġmemorial": 7934,
      "ĠEvery": 7935,
      "ĠPortugal": 7936,
      "Ġcoins": 7937,
      "This": 7938,
      "Ġexperiences": 7939,
      "Ġweapon": 7940,
      "ĠJustice": 7941,
      "Ġspiritual": 7942,
      "Ġopportunities": 7943,
      "Ġthousand": 7944,
      "Ġneighbor": 7945,
      "Ġvessel": 7946,
      "Ġadventure": 7947,
      "ĠGirls": 7948,
      "RELI": 7949,
      "Ġretirement": 7950,
      "ĠDetroit": 7951,
      "Ġacknowled": 7952,
      "atechism": 7953,
      "RELIMO": 7954,
      "Mal": 7955,
      "cru": 7956,
      "hist": 7957,
      "iar": 7958,
      "pus": 7959,
      "ÅĽ": 7960,
      "áĥ": 7961,
      "Ġtiss": 7962,
      "Ġtanks": 7963,
      "heme": 7964,
      "rec": 7965,
      "Ġsons": 7966,
      "orrow": 7967,
      "Ġfountain": 7968,
      "isler": 7969,
      "Ġmask": 7970,
      "icide": 7971,
      "Ġrect": 7972,
      "ĠSans": 7973,
      "ĠSports": 7974,
      "omatic": 7975,
      "ĠCelt": 7976,
      "ĠCec": 7977,
      "Ġgiant": 7978,
      "ĠIra": 7979,
      "ĠBang": 7980,
      "ĠPass": 7981,
      "ĠPoint": 7982,
      "ĠRoc": 7983,
      "ĠRaj": 7984,
      "Ġconj": 7985,
      "Ġconvent": 7986,
      "ĠFound": 7987,
      "ĠFRELIMO": 7988,
      "ĠWright": 7989,
      "ĠNiel": 7990,
      "ĠNetwork": 7991,
      "ĠGoffman": 7992,
      "Ġselection": 7993,
      "ĠLast": 7994,
      "ĠEc": 7995,
      "ĠEaton": 7996,
      "Ġvast": 7997,
      "aka": 7998,
      "Ġshop": 7999,
      "ĠKansas": 8000,
      "order": 8001,
      "Ġtrained": 8002,
      "Ġresign": 8003,
      "Ġagents": 8004,
      "Ġattrib": 8005,
      "Ġ67": 8006,
      "Ġformat": 8007,
      "Ġfounder": 8008,
      "atherine": 8009,
      "rows": 8010,
      "Ġobst": 8011,
      "Ġdepicts": 8012,
      "Ġinstru": 8013,
      "Ġcounties": 8014,
      "Ġcharacterized": 8015,
      "pended": 8016,
      "Ġengage": 8017,
      "Ġstarred": 8018,
      "Ġformerly": 8019,
      "Ġwestward": 8020,
      "ĠProg": 8021,
      "Ġfrig": 8022,
      "Ġprogramme": 8023,
      "ĠPolice": 8024,
      "ĠSimpson": 8025,
      "Ġradiation": 8026,
      "Ġcheck": 8027,
      "ĠMaggie": 8028,
      "Ġsky": 8029,
      "Ġ1850": 8030,
      "Ġfallen": 8031,
      "Ġmeasured": 8032,
      "Ġcosts": 8033,
      "Ġburial": 8034,
      "Ġcopy": 8035,
      "Ġobjective": 8036,
      "ĠKhandoba": 8037,
      "Ġnetworks": 8038,
      "ĠRussia": 8039,
      "ĠHowe": 8040,
      "Ġcleared": 8041,
      "Ġbiggest": 8042,
      "Ġdepending": 8043,
      "ĠRobin": 8044,
      "Ġphotograph": 8045,
      "Ġinstitution": 8046,
      "Ġvehicle": 8047,
      "ĠMiller": 8048,
      "Ġremarked": 8049,
      "Ġexcavation": 8050,
      "Ġholiday": 8051,
      "ĠRAAF": 8052,
      "Ġdelayed": 8053,
      "ĠJurchen": 8054,
      "ĠBulls": 8055,
      "ĠMulder": 8056,
      "ĠMozambique": 8057,
      "owiecki": 8058,
      "Ġconvinced": 8059,
      "Despite": 8060,
      "Ġpsych": 8061,
      "ĠFernand": 8062,
      "Ġinfrastructure": 8063,
      "ĠHudson": 8064,
      "niowiecki": 8065,
      "ÅĽniowiecki": 8066,
      "mel": 8067,
      "nce": 8068,
      "sp": 8069,
      "uable": 8070,
      "Äĩ": 8071,
      "heim": 8072,
      "hered": 8073,
      "Ġmamm": 8074,
      "icity": 8075,
      "Ġdream": 8076,
      "Ġhorn": 8077,
      "Ġrender": 8078,
      "entions": 8079,
      "ĠBall": 8080,
      "ĠBath": 8081,
      "ĠBudd": 8082,
      "Ġstyles": 8083,
      "otal": 8084,
      "osis": 8085,
      "ĠNad": 8086,
      "ĠGate": 8087,
      "Ġrum": 8088,
      "Ġrivers": 8089,
      "ategy": 8090,
      "akota": 8091,
      "Ġcompound": 8092,
      "ruz": 8093,
      "ĠVice": 8094,
      "assador": 8095,
      "Ġresidence": 8096,
      "Ġimpl": 8097,
      "amps": 8098,
      "ĠSee": 8099,
      "oyage": 8100,
      "Ġ84": 8101,
      "Ġ86": 8102,
      "Ġconservation": 8103,
      "Ġformal": 8104,
      "Ġincom": 8105,
      "ĠLeg": 8106,
      "Ġdecides": 8107,
      "Ġdescribe": 8108,
      "Ġhelmet": 8109,
      "Ġrestoration": 8110,
      "ĠAdvent": 8111,
      "ĠCanal": 8112,
      "Ġdifferences": 8113,
      "Ġ1926": 8114,
      "ĠRoth": 8115,
      "Ġopponent": 8116,
      "Ġcrake": 8117,
      "Ġclaiming": 8118,
      "ĠBarb": 8119,
      "ĠMagdal": 8120,
      "Ġskills": 8121,
      "ĠKevin": 8122,
      "Ġaudiences": 8123,
      "Ġclosest": 8124,
      "Ġdetermine": 8125,
      "ĠPhilip": 8126,
      "Ġclearly": 8127,
      "Ġproperties": 8128,
      "Ġhousing": 8129,
      "scar": 8130,
      "Ġrailroad": 8131,
      "Ġdisplayed": 8132,
      "avalry": 8133,
      "ĠVeronica": 8134,
      "Ġvote": 8135,
      "ĠTrek": 8136,
      "Ġsafe": 8137,
      "Ġranging": 8138,
      "ĠAlbums": 8139,
      "Ġinscription": 8140,
      "Ġreservoir": 8141,
      "Ġreinforcements": 8142,
      "Ġbenefit": 8143,
      "ĠMemorial": 8144,
      "Ġcrops": 8145,
      "ĠAerith": 8146,
      "Ġpredecessor": 8147,
      "Ġcitizens": 8148,
      "ĠTerritory": 8149,
      "roscop": 8150,
      "Ġfeathers": 8151,
      "ĠHokies": 8152,
      "Several": 8153,
      "All": 8154,
      "boy": 8155,
      "lie": 8156,
      "piece": 8157,
      "rates": 8158,
      "rating": 8159,
      "wald": 8160,
      "onia": 8161,
      "rees": 8162,
      "Ġsed": 8163,
      "Ġsung": 8164,
      "itt": 8165,
      "Ġtoll": 8166,
      "rog": 8167,
      "Ġdipl": 8168,
      "leged": 8169,
      "ĠTs": 8170,
      "ĠTon": 8171,
      "ĠAz": 8172,
      "ĠCategory": 8173,
      "Ġgrown": 8174,
      "ĠISB": 8175,
      "ĠBi": 8176,
      "Ġalleged": 8177,
      "ĠRest": 8178,
      "aints": 8179,
      "agas": 8180,
      "ĠElect": 8181,
      "Ġprol": 8182,
      "iform": 8183,
      "abil": 8184,
      "ĠStories": 8185,
      "Ġadm": 8186,
      "Ġplayoff": 8187,
      "Ġteen": 8188,
      "ĠAlong": 8189,
      "Ġattained": 8190,
      "ĠAnzac": 8191,
      "ĠArsenal": 8192,
      "Ġregiment": 8193,
      "Ġcooper": 8194,
      "Ġthereafter": 8195,
      "Ġelections": 8196,
      "Ġenth": 8197,
      "Ġteamm": 8198,
      "Ġinstall": 8199,
      "yline": 8200,
      "Ġanyone": 8201,
      "Ġcargo": 8202,
      "Ġpromised": 8203,
      "Ġprompted": 8204,
      "Ġrestricted": 8205,
      "Ġchildhood": 8206,
      "Ġpossess": 8207,
      "Ġarrive": 8208,
      "ĠGray": 8209,
      "Ġslide": 8210,
      "Ġcommandment": 8211,
      "iveness": 8212,
      "Ġtemporary": 8213,
      "alkyria": 8214,
      "Ġfuner": 8215,
      "shore": 8216,
      "Ġrepresentative": 8217,
      "ĠBarry": 8218,
      "Ġ1905": 8219,
      "Ġannounce": 8220,
      "sequently": 8221,
      "ĠXe": 8222,
      "Ġgrounds": 8223,
      "ucky": 8224,
      "Ġranking": 8225,
      "Ġerr": 8226,
      "Ġargues": 8227,
      "Ġruling": 8228,
      "ĠMarkgraf": 8229,
      "Ġperspective": 8230,
      "ĠRepublican": 8231,
      "Ġdefending": 8232,
      "ĠMoore": 8233,
      "ĠTurks": 8234,
      "ĠMrs": 8235,
      "Ġdegrees": 8236,
      "ĠVictorian": 8237,
      "Ġbadly": 8238,
      "rosaur": 8239,
      "Ġmagnitude": 8240,
      "Ġscientists": 8241,
      "ĠCommunist": 8242,
      "ĠConfeder": 8243,
      "Ġranges": 8244,
      "Ġpreparation": 8245,
      "Ġhunting": 8246,
      "Ġthrone": 8247,
      "ĠChapel": 8248,
      "Ġtunnel": 8249,
      "ĠColeman": 8250,
      "Ġexclusively": 8251,
      "Ġastronom": 8252,
      "Ġmoderate": 8253,
      "Ġimprison": 8254,
      "ĠKelly": 8255,
      "ĠExpress": 8256,
      "ĠProtestant": 8257,
      "Malley": 8258,
      "ĠISBN": 8259,
      "AT": 8260,
      "CC": 8261,
      "DS": 8262,
      "EFA": 8263,
      "aun": 8264,
      "burn": 8265,
      "put": 8266,
      "ugh": 8267,
      "yer": 8268,
      "zi": 8269,
      "Ġtheater": 8270,
      "Ġsad": 8271,
      "Ġster": 8272,
      "Ġsisters": 8273,
      "Ġcake": 8274,
      "Ġcaves": 8275,
      "Ġbed": 8276,
      "Ġbones": 8277,
      "inger": 8278,
      "Ġmoon": 8279,
      "icit": 8280,
      "Ġdwar": 8281,
      "Ġhuge": 8282,
      "ĠSle": 8283,
      "ĠSid": 8284,
      "ĠSuch": 8285,
      "ĠSaprang": 8286,
      "Ġeasy": 8287,
      "Ġnav": 8288,
      "Ġnurse": 8289,
      "eline": 8290,
      "adheera": 8291,
      "Ġbear": 8292,
      "ĠMidge": 8293,
      "Ġgates": 8294,
      "ola": 8295,
      "olen": 8296,
      "ĠBell": 8297,
      "owa": 8298,
      "uses": 8299,
      "ĠHope": 8300,
      "ĠDyn": 8301,
      "Ġdeity": 8302,
      "Ġdeleg": 8303,
      "Ġexists": 8304,
      "ĠâĢľ": 8305,
      "ĠKim": 8306,
      "ishn": 8307,
      "Ġclim": 8308,
      "rupted": 8309,
      "ĠVul": 8310,
      "ĠValkyria": 8311,
      "Ġresumed": 8312,
      "Ġ58": 8313,
      "Ġmanga": 8314,
      "Ġdesert": 8315,
      "Ġenh": 8316,
      "Ġoutbreak": 8317,
      "ternal": 8318,
      "Ġ78": 8319,
      "Ġrelation": 8320,
      "Ġconsol": 8321,
      "Ġcharged": 8322,
      "Ġprime": 8323,
      "Ġ08": 8324,
      "Ġdecay": 8325,
      "Ġpoison": 8326,
      "ĠSholay": 8327,
      "Ġ178": 8328,
      "Ġnorthward": 8329,
      "ĠAllen": 8330,
      "ĠPlat": 8331,
      "Ġ140": 8332,
      "Ġexplains": 8333,
      "gery": 8334,
      "Ġhandled": 8335,
      "ĠMcL": 8336,
      "Ġmyst": 8337,
      "Ġeveryone": 8338,
      "Ġtwin": 8339,
      "braska": 8340,
      "alymp": 8341,
      "ĠMinor": 8342,
      "Ġbands": 8343,
      "ĠParalymp": 8344,
      "Ġsteam": 8345,
      "Ġpredators": 8346,
      "Ġengineer": 8347,
      "Ġinjured": 8348,
      "Ġamounts": 8349,
      "Ġcolonies": 8350,
      "Ġboundary": 8351,
      "Ġcelebrated": 8352,
      "Ġarchitecture": 8353,
      "ĠOutstanding": 8354,
      "Ġcorner": 8355,
      "Ġadvertising": 8356,
      "ĠCheval": 8357,
      "ĠDemocratic": 8358,
      "Ġadaptation": 8359,
      "Ġutil": 8360,
      "Ġbulk": 8361,
      "Ġstrengthened": 8362,
      "ĠPersian": 8363,
      "Ġinhabitants": 8364,
      "Ġerected": 8365,
      "Ġdeemed": 8366,
      "ĠTreaty": 8367,
      "ĠIraq": 8368,
      "Ġdwarf": 8369,
      "AC": 8370,
      "EC": 8371,
      "Re": 8372,
      "SA": 8373,
      "gov": 8374,
      "kh": 8375,
      "night": 8376,
      "rad": 8377,
      "tav": 8378,
      "uen": 8379,
      "Ġtack": 8380,
      "Ġturb": 8381,
      "Ġaw": 8382,
      "inery": 8383,
      "Ġwet": 8384,
      "Ġcars": 8385,
      "Ġfate": 8386,
      "Ġfant": 8387,
      "Ġbell": 8388,
      "Ġbind": 8389,
      "Ġbanned": 8390,
      "Ġinse": 8391,
      "icia": 8392,
      "Ġdraf": 8393,
      "Ġrend": 8394,
      "Ġrever": 8395,
      "Ġlake": 8396,
      "omtav": 8397,
      "ĠCob": 8398,
      "ĠCatechism": 8399,
      "Ġgarrison": 8400,
      "ĠBenn": 8401,
      "ĠHor": 8402,
      "ĠProte": 8403,
      "ĠPryce": 8404,
      "ĠRain": 8405,
      "emies": 8406,
      "osom": 8407,
      "Ġanth": 8408,
      "ĠNash": 8409,
      "avel": 8410,
      "ĠLover": 8411,
      "Ġrib": 8412,
      "ĠOscar": 8413,
      "ifies": 8414,
      "illed": 8415,
      "apse": 8416,
      "ĠStal": 8417,
      "uez": 8418,
      "okovic": 8419,
      "ĠHeaven": 8420,
      "Ġscattered": 8421,
      "Ġpartner": 8422,
      "Ġtexts": 8423,
      "ĠUnivers": 8424,
      "Ġcanc": 8425,
      "ĠArk": 8426,
      "Ġrecordings": 8427,
      "Ġproductions": 8428,
      "Ġsubstitute": 8429,
      "rophy": 8430,
      "Ġenters": 8431,
      "Ġ165": 8432,
      "ĠAsh": 8433,
      "Ġmonuments": 8434,
      "ĠShow": 8435,
      "ĠScully": 8436,
      "Ġ113": 8437,
      "Ġexposed": 8438,
      "Ġlandings": 8439,
      "Ġdesigner": 8440,
      "Ġwarning": 8441,
      "Ġstrategy": 8442,
      "ĠHerze": 8443,
      "ĠBeet": 8444,
      "Ġdriver": 8445,
      "Ġdifference": 8446,
      "plete": 8447,
      "ĠTracy": 8448,
      "Ġ1924": 8449,
      "Ġ1925": 8450,
      "Ġdemands": 8451,
      "ĠManagement": 8452,
      "ĠAbby": 8453,
      "ĠNebraska": 8454,
      "Ġpriest": 8455,
      "Ġsteep": 8456,
      "Ġcondem": 8457,
      "apping": 8458,
      "Ġsupern": 8459,
      "Ġfundament": 8460,
      "ĠMadrid": 8461,
      "ĠRocky": 8462,
      "Ġexecuted": 8463,
      "ĠEmmy": 8464,
      "Ġprevented": 8465,
      "Ġapplication": 8466,
      "Ġdominant": 8467,
      "Ġsettlements": 8468,
      "Ġuncertain": 8469,
      "ASP": 8470,
      "Ġjudge": 8471,
      "ĠDjokovic": 8472,
      "Ġpursue": 8473,
      "Ġgraphics": 8474,
      "Ġdemonstrated": 8475,
      "Ġexcavations": 8476,
      "Ġdistinctive": 8477,
      "Ġturrets": 8478,
      "iggs": 8479,
      "otype": 8480,
      "Ġinscriptions": 8481,
      "Ġtactics": 8482,
      "ĠRailway": 8483,
      "Ġdistinguished": 8484,
      "ĠRifles": 8485,
      "ĠYankees": 8486,
      "govina": 8487,
      "omtavruli": 8488,
      "ĠHerzegovina": 8489,
      "NC": 8490,
      "ait": 8491,
      "ij": 8492,
      "mouth": 8493,
      "noon": 8494,
      "ois": 8495,
      "rus": 8496,
      "Ġtenth": 8497,
      "Ġaster": 8498,
      "inian": 8499,
      "Ġpounds": 8500,
      "Ġmbar": 8501,
      "oux": 8502,
      "Ġrevers": 8503,
      "ilation": 8504,
      "ĠSb": 8505,
      "urrent": 8506,
      "Ġgro": 8507,
      "Ġforty": 8508,
      "oli": 8509,
      "imal": 8510,
      "ĠThen": 8511,
      "ĠBible": 8512,
      "ĠBaker": 8513,
      "Ġstood": 8514,
      "otten": 8515,
      "ĠWomen": 8516,
      "ĠNL": 8517,
      "ĠLang": 8518,
      "Ġcomed": 8519,
      "ifer": 8520,
      "Ġsure": 8521,
      "arte": 8522,
      "udes": 8523,
      "Ġtrust": 8524,
      "ignment": 8525,
      "Ġusage": 8526,
      "Ġscheme": 8527,
      "Ġafternoon": 8528,
      "Ġoffs": 8529,
      "weight": 8530,
      "Ġcenters": 8531,
      "Ġfee": 8532,
      "Ġfeels": 8533,
      "Ġconsult": 8534,
      "Ġcharity": 8535,
      "Ġreleases": 8536,
      "Ġassisted": 8537,
      "ĠDean": 8538,
      "fully": 8539,
      "Ġsmooth": 8540,
      "Ġdowntown": 8541,
      "azines": 8542,
      "Ġconsidering": 8543,
      "Ġedges": 8544,
      "Ġ1934": 8545,
      "Ġprompt": 8546,
      "ĠClin": 8547,
      "Ġdrain": 8548,
      "Ġportrait": 8549,
      "Ġapproval": 8550,
      "Ġtriple": 8551,
      "Ġinitiated": 8552,
      "Ġamongst": 8553,
      "Ġmagazines": 8554,
      "Ġfrust": 8555,
      "Ġprofile": 8556,
      "Ġsounds": 8557,
      "ĠDavis": 8558,
      "ĠGlob": 8559,
      "Ġliked": 8560,
      "ĠAnglo": 8561,
      "ĠRecord": 8562,
      "ĠJews": 8563,
      "ĠCongo": 8564,
      "ĠBusiness": 8565,
      "Ġsubjects": 8566,
      "Ġdefenders": 8567,
      "Ġarchaeologist": 8568,
      "Ġindicating": 8569,
      "Ġceratops": 8570,
      "Ġsatell": 8571,
      "Ġtournaments": 8572,
      "Ġemergency": 8573,
      "Ġinnov": 8574,
      "Ġsuspended": 8575,
      "Ġboxing": 8576,
      "ĠTennesse": 8577,
      "Ġtranslation": 8578,
      "Ġsucceed": 8579,
      "Ġsacred": 8580,
      "Ġduty": 8581,
      "Ġcollaboration": 8582,
      "Ġaltered": 8583,
      "ĠSilver": 8584,
      "Ġpremiere": 8585,
      "Ġstriking": 8586,
      "Ġphilosophy": 8587,
      "chell": 8588,
      "Ġrifle": 8589,
      "Ġresidential": 8590,
      "Ġelder": 8591,
      "borne": 8592,
      "ĠPhoenix": 8593,
      "Ġfalse": 8594,
      "Ġmartial": 8595,
      "ĠOrganization": 8596,
      "Ġcongreg": 8597,
      "ĠCorporation": 8598,
      "Ġcommemor": 8599,
      "ĠCeltic": 8600,
      "ĠNielsen": 8601,
      "Ġasteroid": 8602,
      "ĠTennessee": 8603,
      "don": 8604,
      "pic": 8605,
      "Ġtale": 8606,
      "Ġcous": 8607,
      "Ġfert": 8608,
      "Ġbod": 8609,
      "Ġbishop": 8610,
      "arth": 8611,
      "Ġpine": 8612,
      "Ġtoured": 8613,
      "ilty": 8614,
      "Ġlam": 8615,
      "ĠSAS": 8616,
      "amount": 8617,
      "ĠBarker": 8618,
      "usic": 8619,
      "utor": 8620,
      "ĠRem": 8621,
      "Ġconclusion": 8622,
      "ĠFall": 8623,
      "ĠDave": 8624,
      "ĠNaval": 8625,
      "ĠNDH": 8626,
      "agine": 8627,
      "agner": 8628,
      "ĠGun": 8629,
      "ĠLower": 8630,
      "Ġchamber": 8631,
      "sex": 8632,
      "ĠKong": 8633,
      "ellar": 8634,
      "ĠVeer": 8635,
      "ffield": 8636,
      "Ġroots": 8637,
      "Ġ92": 8638,
      "ĠOntar": 8639,
      "Ġflash": 8640,
      "ologies": 8641,
      "Ġ09": 8642,
      "Ġ101": 8643,
      "Ġreceives": 8644,
      "ĠShel": 8645,
      "ĠSheffield": 8646,
      "Ġobl": 8647,
      "Ġpoll": 8648,
      "Ġimpressed": 8649,
      "Ġvariation": 8650,
      "ervative": 8651,
      "Ġguilty": 8652,
      "ĠGrade": 8653,
      "Ġexplo": 8654,
      "Ġcolleagues": 8655,
      "Ġ1000": 8656,
      "neath": 8657,
      "ĠMcG": 8658,
      "Ġcrisis": 8659,
      "Ġrealized": 8660,
      "Ġcommunication": 8661,
      "Ġdeliber": 8662,
      "Ġordering": 8663,
      "ĠRomanian": 8664,
      "Ġnortheastern": 8665,
      "shmun": 8666,
      "encing": 8667,
      "Ġ1908": 8668,
      "Ġbattlecru": 8669,
      "Ġreducing": 8670,
      "Ġfifty": 8671,
      "ĠSwiss": 8672,
      "Ġrespective": 8673,
      "ĠBerlin": 8674,
      "Ġreveal": 8675,
      "Ġcrews": 8676,
      "ĠMadison": 8677,
      "Ġrebuilt": 8678,
      "Ġ1870": 8679,
      "Ġviolent": 8680,
      "Ġquarterback": 8681,
      "ĠImagine": 8682,
      "Ġoccupation": 8683,
      "Ġtesting": 8684,
      "ĠAgain": 8685,
      "Ġfrequent": 8686,
      "Ġadopt": 8687,
      "ĠFinals": 8688,
      "Ġschedule": 8689,
      "ĠMountains": 8690,
      "ĠBelg": 8691,
      "Ġrequested": 8692,
      "Ġtalking": 8693,
      "ĠHawaii": 8694,
      "Ġmanufactur": 8695,
      "Ġdefinition": 8696,
      "ĠOriginal": 8697,
      "Ġdelivery": 8698,
      "ĠJonathan": 8699,
      "ĠGiants": 8700,
      "Ġfatal": 8701,
      "ĠCubs": 8702,
      "ĠVillage": 8703,
      "ĠAlfred": 8704,
      "burgh": 8705,
      "ĠInitially": 8706,
      "Ġethnic": 8707,
      "Ġsimultaneously": 8708,
      "ĠWicca": 8709,
      "ĠBertin": 8710,
      "ĠChevaliers": 8711,
      "ĠOntario": 8712,
      "One": 8713,
      "Since": 8714,
      "ean": 8715,
      "fess": 8716,
      "gars": 8717,
      "jamin": 8718,
      "the": 8719,
      "yo": 8720,
      "Ã§": 8721,
      "nda": 8722,
      "Ġcup": 8723,
      "Ġpull": 8724,
      "Ġnet": 8725,
      "Ġnations": 8726,
      "Ġnurs": 8727,
      "ellect": 8728,
      "ĠCP": 8729,
      "adier": 8730,
      "Ġgets": 8731,
      "ĠBat": 8732,
      "ĠBah": 8733,
      "Ġstrict": 8734,
      "ĠPle": 8735,
      "ĠRa": 8736,
      "ĠDiv": 8737,
      "ĠDog": 8738,
      "ĠDakota": 8739,
      "aganda": 8740,
      "Ġsend": 8741,
      "ĠOreg": 8742,
      "Ġvul": 8743,
      "oples": 8744,
      "Ġyield": 8745,
      "Ġtrick": 8746,
      "ĠChagas": 8747,
      "Ġcomponents": 8748,
      "Ġintellect": 8749,
      "Ġclin": 8750,
      "ĠThus": 8751,
      "ĠThose": 8752,
      "Ġspur": 8753,
      "Ġupset": 8754,
      "ĠAnne": 8755,
      "ĠMariana": 8756,
      "Ġpeaking": 8757,
      "Ġ02": 8758,
      "Ġ123": 8759,
      "ĠAsian": 8760,
      "Ġ155": 8761,
      "Ġobvious": 8762,
      "Ġrunners": 8763,
      "Ġoperates": 8764,
      "Ġcarri": 8765,
      "Ġimpression": 8766,
      "Ġmathem": 8767,
      "rapped": 8768,
      "Ġmetre": 8769,
      "Ġhelium": 8770,
      "Ġvisiting": 8771,
      "Ġ1923": 8772,
      "Ġorganised": 8773,
      "Ġsentences": 8774,
      "ĠPerfect": 8775,
      "Ġshoulder": 8776,
      "ventually": 8777,
      "ĠNext": 8778,
      "aski": 8779,
      "ĠMagadheera": 8780,
      "Ġfifteen": 8781,
      "Ġasks": 8782,
      "Ġrounds": 8783,
      "Ġemployees": 8784,
      "ĠHills": 8785,
      "Ġpotentially": 8786,
      "ĠFIFA": 8787,
      "Ġjobs": 8788,
      "ĠPriest": 8789,
      "Ġnewspapers": 8790,
      "Ġkilome": 8791,
      "ĠHawaiian": 8792,
      "Ġrhyme": 8793,
      "Ġwithdrawal": 8794,
      "Ġmechanical": 8795,
      "Ġvenues": 8796,
      "ĠJourney": 8797,
      "Ġinterpre": 8798,
      "Ġmolecules": 8799,
      "ĠLeslie": 8800,
      "Ġeliminated": 8801,
      "Ġassassination": 8802,
      "ĠGilbert": 8803,
      "ĠWiÅĽniowiecki": 8804,
      "ĠEducation": 8805,
      "ĠQueensland": 8806,
      "ĠLabour": 8807,
      "Ġcollapsed": 8808,
      "Ġculmin": 8809,
      "Ġelaborate": 8810,
      "ĠHouston": 8811,
      "ĠOregon": 8812,
      "Pa": 8813,
      "ba": 8814,
      "cious": 8815,
      "xual": 8816,
      "ÅĤ": 8817,
      "Ġsang": 8818,
      "Ġori": 8819,
      "Ġwel": 8820,
      "atropical": 8821,
      "Ġdies": 8822,
      "ĠAuth": 8823,
      "ĠABC": 8824,
      "ĠSem": 8825,
      "ĠSand": 8826,
      "ĠSup": 8827,
      "eless": 8828,
      "ĠCany": 8829,
      "ĠMit": 8830,
      "ĠMant": 8831,
      "ĠMach": 8832,
      "Ġgust": 8833,
      "oln": 8834,
      "Ġstores": 8835,
      "uty": 8836,
      "Ġisot": 8837,
      "ĠRhys": 8838,
      "ĠNS": 8839,
      "ĠNob": 8840,
      "agod": 8841,
      "ĠGa": 8842,
      "ĠLinc": 8843,
      "umin": 8844,
      "Ġride": 8845,
      "ĠOmar": 8846,
      "Ġvice": 8847,
      "Ġsuitable": 8848,
      "illiant": 8849,
      "apore": 8850,
      "aku": 8851,
      "acked": 8852,
      "ĠKen": 8853,
      "ĠStav": 8854,
      "iney": 8855,
      "raia": 8856,
      "Ġcontribution": 8857,
      "ogy": 8858,
      "Ġclust": 8859,
      "Ġabol": 8860,
      "angular": 8861,
      "Ġearning": 8862,
      "Ġremove": 8863,
      "ĠComb": 8864,
      "Ġacids": 8865,
      "obile": 8866,
      "ohl": 8867,
      "ĠLeigh": 8868,
      "Ġsurgery": 8869,
      "Ġ163": 8870,
      "ieties": 8871,
      "ernon": 8872,
      "Ġartistic": 8873,
      "Ġexpression": 8874,
      "Ġconstant": 8875,
      "Ġadvancing": 8876,
      "Ġdams": 8877,
      "ĠCommons": 8878,
      "Ġdirectors": 8879,
      "ĠPlan": 8880,
      "Ġclassification": 8881,
      "Ġrefuge": 8882,
      "ĠTrust": 8883,
      "Ġkills": 8884,
      "Ġsentiment": 8885,
      "Ġpersonality": 8886,
      "ĠPeach": 8887,
      "Ġreferring": 8888,
      "Ġparody": 8889,
      "Ġfactory": 8890,
      "Ġstructural": 8891,
      "Ġputting": 8892,
      "ĠEvans": 8893,
      "ĠCorb": 8894,
      "ucks": 8895,
      "Ġvalid": 8896,
      "Ġcreative": 8897,
      "Ġasking": 8898,
      "atinum": 8899,
      "Ġrenov": 8900,
      "Ġdiagn": 8901,
      "Ġ1830": 8902,
      "Ġspacecraft": 8903,
      "Ġcompliment": 8904,
      "Ġdispute": 8905,
      "Ġdrove": 8906,
      "Ġboundaries": 8907,
      "Ġdocumented": 8908,
      "ĠBenjamin": 8909,
      "Ġtranslated": 8910,
      "Ġneighbour": 8911,
      "Ġinhab": 8912,
      "Ġextratropical": 8913,
      "Ġyoungest": 8914,
      "ĠIndependence": 8915,
      "Ġseeking": 8916,
      "ĠKorea": 8917,
      "Ġcomparison": 8918,
      "Ġcolumns": 8919,
      "ĠNevertheless": 8920,
      "Ġtrouble": 8921,
      "Ġtheatrical": 8922,
      "ĠIslamic": 8923,
      "ĠMurray": 8924,
      "ĠBrooks": 8925,
      "Ã¶n": 8926,
      "ĠCaes": 8927,
      "imetres": 8928,
      "ekend": 8929,
      "ĠProgram": 8930,
      "ĠSupreme": 8931,
      "ĠCanyon": 8932,
      "ĠLincoln": 8933,
      "Grom": 8934,
      "IA": 8935,
      "NL": 8936,
      "dney": 8937,
      "krit": 8938,
      "mont": 8939,
      "oard": 8940,
      "uv": 8941,
      "Ã¸": 8942,
      "Ġáĥ": 8943,
      "Ġsample": 8944,
      "Ġcave": 8945,
      "Ġfishing": 8946,
      "enic": 8947,
      "Ġinclusion": 8948,
      "ashed": 8949,
      "Ġtopped": 8950,
      "Ġhull": 8951,
      "Ġlat": 8952,
      "Ġlies": 8953,
      "Ġlibrary": 8954,
      "ĠSn": 8955,
      "ĠSant": 8956,
      "ĠCase": 8957,
      "acruz": 8958,
      "Ġbeam": 8959,
      "ĠBidd": 8960,
      "ĠHarrison": 8961,
      "otes": 8962,
      "etime": 8963,
      "ĠPow": 8964,
      "ĠPrest": 8965,
      "Ġalt": 8966,
      "unes": 8967,
      "ĠFace": 8968,
      "ĠDD": 8969,
      "ĠDie": 8970,
      "ĠWagner": 8971,
      "ĠanekÄģntavÄģda": 8972,
      "ĠNar": 8973,
      "ĠNatural": 8974,
      "ĠNett": 8975,
      "Ġrising": 8976,
      "odore": 8977,
      "ardine": 8978,
      "Ġplus": 8979,
      "Ġkit": 8980,
      "Ġnotice": 8981,
      "ĠKnow": 8982,
      "ĠChampions": 8983,
      "Ġdisagre": 8984,
      "Ġenzy": 8985,
      "resswell": 8986,
      "Ġspending": 8987,
      "ĠSection": 8988,
      "ĠAncient": 8989,
      "ugu": 8990,
      "inder": 8991,
      "Ġproduces": 8992,
      "Ġprint": 8993,
      "Ġsubmitted": 8994,
      "Ġgray": 8995,
      "Ġcoff": 8996,
      "enden": 8997,
      "ĠAsomtavruli": 8998,
      "Ġcompleting": 8999,
      "Ġbridges": 9000,
      "ĠWarren": 9001,
      "ennium": 9002,
      "ĠChristine": 9003,
      "ĠChristopher": 9004,
      "byter": 9005,
      "Ġreflected": 9006,
      "Ġtrials": 9007,
      "Ġexplain": 9008,
      "Ġorganisation": 9009,
      "Ġpersonally": 9010,
      "porarily": 9011,
      "Ġexpert": 9012,
      "ĠWeb": 9013,
      "Ġbases": 9014,
      "Ġanthem": 9015,
      "Ġtemporarily": 9016,
      "Ġtwent": 9017,
      "Ġcommunications": 9018,
      "Ġparas": 9019,
      "Ġsolar": 9020,
      "Ġrepresentation": 9021,
      "Ġ1907": 9022,
      "Ġrevised": 9023,
      "Ġprofessor": 9024,
      "Ġswim": 9025,
      "Ġsuperv": 9026,
      "Ġfalls": 9027,
      "Ġarmament": 9028,
      "Ġcollapse": 9029,
      "Ġmachines": 9030,
      "Ġremoval": 9031,
      "Ġarchaeology": 9032,
      "ĠSingapore": 9033,
      "Ġquestions": 9034,
      "Ġbirthday": 9035,
      "Ġsemif": 9036,
      "Ġfavorable": 9037,
      "ĠPrix": 9038,
      "ĠPrize": 9039,
      "Ġprepare": 9040,
      "ĠWaterfall": 9041,
      "Ġ766": 9042,
      "Ġpowered": 9043,
      "ĠLouisiana": 9044,
      "Ġsculptures": 9045,
      "ĠConservation": 9046,
      "Ġbattleships": 9047,
      "Ġenvironmental": 9048,
      "ĠObser": 9049,
      "Ġvertical": 9050,
      "Ġencountered": 9051,
      "Ġsegment": 9052,
      "ĠMathews": 9053,
      "ĠChronicles": 9054,
      "ĠTelugu": 9055,
      "ĠConstruction": 9056,
      "ĠSorraia": 9057,
      "ĠSanskrit": 9058,
      "ĠFoundation": 9059,
      "Ġsatellite": 9060,
      "ĠBelgium": 9061,
      "ĠBiddenden": 9062,
      "ĠNettles": 9063,
      "eign": 9064,
      "fl": 9065,
      "gets": 9066,
      "ract": 9067,
      "tah": 9068,
      "Ġï": 9069,
      "Ġump": 9070,
      "Ġsailed": 9071,
      "Ġwives": 9072,
      "Ġwishes": 9073,
      "Ġchest": 9074,
      "itively": 9075,
      "Ġfoss": 9076,
      "Ġfitted": 9077,
      "Ġbom": 9078,
      "Ġbarr": 9079,
      "Ġphen": 9080,
      "inge": 9081,
      "Ġhidden": 9082,
      "ĠTok": 9083,
      "ĠSoon": 9084,
      "elle": 9085,
      "urally": 9086,
      "ĠMir": 9087,
      "irates": 9088,
      "ĠBad": 9089,
      "ĠBab": 9090,
      "ĠBald": 9091,
      "ulu": 9092,
      "ĠDud": 9093,
      "ĠWing": 9094,
      "Ġhem": 9095,
      "ershow": 9096,
      "agogue": 9097,
      "ĠJun": 9098,
      "ĠEshmun": 9099,
      "ewise": 9100,
      "Ġshares": 9101,
      "ĠâĢĿ": 9102,
      "ĠKurt": 9103,
      "Ġtru": 9104,
      "Ġuniform": 9105,
      "ieth": 9106,
      "ansfield": 9107,
      "Ġjunior": 9108,
      "overeign": 9109,
      "Ġupgraded": 9110,
      "ĠYo": 9111,
      "Ġprefect": 9112,
      "Ġpretty": 9113,
      "Ġevident": 9114,
      "enses": 9115,
      "Ġmeters": 9116,
      "manita": 9117,
      "Ġcanal": 9118,
      "rono": 9119,
      "Ġpublishing": 9120,
      "arsh": 9121,
      "Ġindeed": 9122,
      "Ġ03": 9123,
      "Ġsurge": 9124,
      "phoon": 9125,
      "Ġmainland": 9126,
      "Ġgenera": 9127,
      "Ġrepair": 9128,
      "ĠFran": 9129,
      "ĠConc": 9130,
      "ĠBeh": 9131,
      "Ġweekly": 9132,
      "minster": 9133,
      "Ġarriving": 9134,
      "Ġ1922": 9135,
      "Ġslip": 9136,
      "Ġtraded": 9137,
      "vesinje": 9138,
      "Ġjoining": 9139,
      "incial": 9140,
      "Ġprogramming": 9141,
      "ĠXII": 9142,
      "Ġcharted": 9143,
      "ĠNevesinje": 9144,
      "ĠRegister": 9145,
      "Ġhighways": 9146,
      "Ġconvention": 9147,
      "Ġarmored": 9148,
      "ĠSym": 9149,
      "Ġbiological": 9150,
      "ĠCooper": 9151,
      "Ġdiscussion": 9152,
      "Ġobjectives": 9153,
      "ĠVeracruz": 9154,
      "Ġkeeping": 9155,
[...]
